{
  "version": "1.0",
  "truncation": null,
  "padding": null,
  "added_tokens": [
    {
      "id": 0,
      "content": "<|endoftext|>",
      "single_word": false,
      "lstrip": false,
      "rstrip": false,
      "normalized": false,
      "special": true
    },
    {
      "id": 1,
      "content": "<|pad|>",
      "single_word": false,
      "lstrip": false,
      "rstrip": false,
      "normalized": false,
      "special": true
    },
    {
      "id": 2,
      "content": "<|im_start|>",
      "single_word": false,
      "lstrip": false,
      "rstrip": false,
      "normalized": false,
      "special": true
    },
    {
      "id": 3,
      "content": "<|im_end|>",
      "single_word": false,
      "lstrip": false,
      "rstrip": false,
      "normalized": false,
      "special": true
    }
  ],
  "normalizer": null,
  "pre_tokenizer": {
    "type": "Sequence",
    "pretokenizers": [
      {
        "type": "Split",
        "pattern": {
          "Regex": "'(?i:[sdmt]|ll|ve|re)|[^\\r\\n\\p{L}\\p{N}]?+\\p{L}++|\\p{N}{1,3}+| ?[^\\s\\p{L}\\p{N}]++[\\r\\n]*+|\\s++$|\\s*[\\r\\n]|\\s+(?!\\S)|\\s"
        },
        "behavior": "Isolated",
        "invert": false
      },
      {
        "type": "ByteLevel",
        "add_prefix_space": false,
        "trim_offsets": true,
        "use_regex": false
      }
    ]
  },
  "post_processor": {
    "type": "TemplateProcessing",
    "single": [
      {
        "Sequence": {
          "id": "A",
          "type_id": 0
        }
      }
    ],
    "pair": [
      {
        "Sequence": {
          "id": "A",
          "type_id": 0
        }
      },
      {
        "Sequence": {
          "id": "B",
          "type_id": 1
        }
      }
    ],
    "special_tokens": {}
  },
  "decoder": {
    "type": "ByteLevel",
    "add_prefix_space": true,
    "trim_offsets": true,
    "use_regex": true
  },
  "model": {
    "type": "BPE",
    "dropout": null,
    "unk_token": null,
    "continuing_subword_prefix": null,
    "end_of_word_suffix": null,
    "fuse_unk": false,
    "byte_fallback": false,
    "ignore_merges": false,
    "vocab": {
      "<|endoftext|>": 0,
      "<|pad|>": 1,
      "<|im_start|>": 2,
      "<|im_end|>": 3,
      "!": 4,
      "\"": 5,
      "#": 6,
      "$": 7,
      "%": 8,
      "&": 9,
      "'": 10,
      "(": 11,
      ")": 12,
      "*": 13,
      "+": 14,
      ",": 15,
      "-": 16,
      ".": 17,
      "/": 18,
      "0": 19,
      "1": 20,
      "2": 21,
      "3": 22,
      "4": 23,
      "5": 24,
      "6": 25,
      "7": 26,
      "8": 27,
      "9": 28,
      ":": 29,
      ";": 30,
      "<": 31,
      "=": 32,
      ">": 33,
      "?": 34,
      "@": 35,
      "A": 36,
      "B": 37,
      "C": 38,
      "D": 39,
      "E": 40,
      "F": 41,
      "G": 42,
      "H": 43,
      "I": 44,
      "J": 45,
      "K": 46,
      "L": 47,
      "M": 48,
      "N": 49,
      "O": 50,
      "P": 51,
      "Q": 52,
      "R": 53,
      "S": 54,
      "T": 55,
      "U": 56,
      "V": 57,
      "W": 58,
      "X": 59,
      "Y": 60,
      "Z": 61,
      "[": 62,
      "\\": 63,
      "]": 64,
      "^": 65,
      "_": 66,
      "`": 67,
      "a": 68,
      "b": 69,
      "c": 70,
      "d": 71,
      "e": 72,
      "f": 73,
      "g": 74,
      "h": 75,
      "i": 76,
      "j": 77,
      "k": 78,
      "l": 79,
      "m": 80,
      "n": 81,
      "o": 82,
      "p": 83,
      "q": 84,
      "r": 85,
      "s": 86,
      "t": 87,
      "u": 88,
      "v": 89,
      "w": 90,
      "x": 91,
      "y": 92,
      "z": 93,
      "{": 94,
      "|": 95,
      "}": 96,
      "~": 97,
      "¡": 98,
      "¢": 99,
      "£": 100,
      "¤": 101,
      "¥": 102,
      "¦": 103,
      "§": 104,
      "¨": 105,
      "©": 106,
      "ª": 107,
      "«": 108,
      "¬": 109,
      "®": 110,
      "¯": 111,
      "°": 112,
      "±": 113,
      "²": 114,
      "³": 115,
      "´": 116,
      "µ": 117,
      "¶": 118,
      "·": 119,
      "¸": 120,
      "¹": 121,
      "º": 122,
      "»": 123,
      "¼": 124,
      "½": 125,
      "¾": 126,
      "¿": 127,
      "À": 128,
      "Á": 129,
      "Â": 130,
      "Ã": 131,
      "Ä": 132,
      "Å": 133,
      "Æ": 134,
      "Ç": 135,
      "È": 136,
      "É": 137,
      "Ê": 138,
      "Ë": 139,
      "Ì": 140,
      "Í": 141,
      "Î": 142,
      "Ï": 143,
      "Ð": 144,
      "Ñ": 145,
      "Ò": 146,
      "Ó": 147,
      "Ô": 148,
      "Õ": 149,
      "Ö": 150,
      "×": 151,
      "Ø": 152,
      "Ù": 153,
      "Ú": 154,
      "Û": 155,
      "Ü": 156,
      "Ý": 157,
      "Þ": 158,
      "ß": 159,
      "à": 160,
      "á": 161,
      "â": 162,
      "ã": 163,
      "ä": 164,
      "å": 165,
      "æ": 166,
      "ç": 167,
      "è": 168,
      "é": 169,
      "ê": 170,
      "ë": 171,
      "ì": 172,
      "í": 173,
      "î": 174,
      "ï": 175,
      "ð": 176,
      "ñ": 177,
      "ò": 178,
      "ó": 179,
      "ô": 180,
      "õ": 181,
      "ö": 182,
      "÷": 183,
      "ø": 184,
      "ù": 185,
      "ú": 186,
      "û": 187,
      "ü": 188,
      "ý": 189,
      "þ": 190,
      "ÿ": 191,
      "Ā": 192,
      "ā": 193,
      "Ă": 194,
      "ă": 195,
      "Ą": 196,
      "ą": 197,
      "Ć": 198,
      "ć": 199,
      "Ĉ": 200,
      "ĉ": 201,
      "Ċ": 202,
      "ċ": 203,
      "Č": 204,
      "č": 205,
      "Ď": 206,
      "ď": 207,
      "Đ": 208,
      "đ": 209,
      "Ē": 210,
      "ē": 211,
      "Ĕ": 212,
      "ĕ": 213,
      "Ė": 214,
      "ė": 215,
      "Ę": 216,
      "ę": 217,
      "Ě": 218,
      "ě": 219,
      "Ĝ": 220,
      "ĝ": 221,
      "Ğ": 222,
      "ğ": 223,
      "Ġ": 224,
      "ġ": 225,
      "Ģ": 226,
      "ģ": 227,
      "Ĥ": 228,
      "ĥ": 229,
      "Ħ": 230,
      "ħ": 231,
      "Ĩ": 232,
      "ĩ": 233,
      "Ī": 234,
      "ī": 235,
      "Ĭ": 236,
      "ĭ": 237,
      "Į": 238,
      "į": 239,
      "İ": 240,
      "ı": 241,
      "Ĳ": 242,
      "ĳ": 243,
      "Ĵ": 244,
      "ĵ": 245,
      "Ķ": 246,
      "ķ": 247,
      "ĸ": 248,
      "Ĺ": 249,
      "ĺ": 250,
      "Ļ": 251,
      "ļ": 252,
      "Ľ": 253,
      "ľ": 254,
      "Ŀ": 255,
      "ŀ": 256,
      "Ł": 257,
      "ł": 258,
      "Ń": 259,
      "Ġt": 260,
      "Ġa": 261,
      "in": 262,
      "he": 263,
      "ĠĠ": 264,
      "re": 265,
      "on": 266,
      "Ġthe": 267,
      "er": 268,
      "at": 269,
      "Ġs": 270,
      "Ġo": 271,
      "en": 272,
      "Ġc": 273,
      "es": 274,
      "Ġw": 275,
      "or": 276,
      "is": 277,
      "nd": 278,
      "it": 279,
      "al": 280,
      "Ġp": 281,
      "ing": 282,
      "Ġf": 283,
      "an": 284,
      "ed": 285,
      "Ġb": 286,
      "Ġof": 287,
      "ar": 288,
      "ou": 289,
      "Ġin": 290,
      "Ġm": 291,
      "ion": 292,
      "ic": 293,
      "ĠĠĠĠ": 294,
      "Ġand": 295,
      "Ġd": 296,
      "Ġto": 297,
      "le": 298,
      "ro": 299,
      "as": 300,
      "ent": 301,
      "Ġth": 302,
      "Ġh": 303,
      "ct": 304,
      "Ġe": 305,
      "Ġre": 306,
      "el": 307,
      "om": 308,
      "il": 309,
      "st": 310,
      "Ġl": 311,
      "Ġn": 312,
      "et": 313,
      ".Ċ": 314,
      "im": 315,
      "ol": 316,
      "ve": 317,
      "Ġis": 318,
      "ation": 319,
      "ĠT": 320,
      "Ġg": 321,
      "id": 322,
      "ra": 323,
      "ut": 324,
      "se": 325,
      "âĢ": 326,
      "ur": 327,
      "ly": 328,
      "ce": 329,
      "ot": 330,
      "ig": 331,
      "ow": 332,
      "ch": 333,
      "Ġbe": 334,
      "Ġu": 335,
      "Ġfor": 336,
      "ĠA": 337,
      "Ġst": 338,
      "ĠĠĠ": 339,
      "ĠS": 340,
      "ver": 341,
      "am": 342,
      "Ġon": 343,
      "ul": 344,
      "Ġy": 345,
      "Ġthat": 346,
      "ĠI": 347,
      "ir": 348,
      "ĠC": 349,
      "if": 350,
      "ith": 351,
      "ay": 352,
      "ad": 353,
      "Ġcon": 354,
      "Ġas": 355,
      "Ġpro": 356,
      "od": 357,
      "her": 358,
      "ĠĠĠĠĠĠĠĠ": 359,
      "Ġwith": 360,
      "Ġyou": 361,
      "Ġ(": 362,
      "Ġan": 363,
      "ter": 364,
      "Ġit": 365,
      "Ġor": 366,
      "Ġare": 367,
      "Ġwh": 368,
      "Ġal": 369,
      "ge": 370,
      "um": 371,
      "ist": 372,
      "ĠM": 373,
      "Ġde": 374,
      "Ġex": 375,
      "ate": 376,
      "ab": 377,
      "ers": 378,
      "ess": 379,
      "ĠP": 380,
      "ĠThe": 381,
      "th": 382,
      "ect": 383,
      "op": 384,
      "ies": 385,
      "res": 386,
      "ment": 387,
      "qu": 388,
      "us": 389,
      "Ġcom": 390,
      "iv": 391,
      "Ġv": 392,
      "est": 393,
      "ity": 394,
      "ĠB": 395,
      "Ġhe": 396,
      "Ġwe": 397,
      "ac": 398,
      "ill": 399,
      "em": 400,
      "ore": 401,
      "os": 402,
      "pp": 403,
      "Ġsu": 404,
      "rom": 405,
      "and": 406,
      "nt": 407,
      "ke": 408,
      "ort": 409,
      "ain": 410,
      "ld": 411,
      "ĊĊ": 412,
      "igh": 413,
      "ant": 414,
      "oc": 415,
      "ive": 416,
      "ĠH": 417,
      "ĠW": 418,
      "Ġby": 419,
      "ri": 420,
      "Ġat": 421,
      "ĠD": 422,
      "ĠĠĠĠĠĠĠ": 423,
      "ĠE": 424,
      "âĢĻ": 425,
      "un": 426,
      "Ġch": 427,
      "ĠF": 428,
      "Ġcan": 429,
      "Ġr": 430,
      "ĠR": 431,
      "Ġne": 432,
      "Ġha": 433,
      "ud": 434,
      "ial": 435,
      "ure": 436,
      "Ġse": 437,
      "Ġfrom": 438,
      "Ġ=": 439,
      "pe": 440,
      "ical": 441,
      "Ġle": 442,
      "og": 443,
      "art": 444,
      "ĠN": 445,
      "Ġwas": 446,
      "Ġen": 447,
      "pt": 448,
      "--": 449,
      "Ġnot": 450,
      "pl": 451,
      "ions": 452,
      "ĠL": 453,
      "ight": 454,
      "Ġsh": 455,
      "ĠG": 456,
      "rou": 457,
      "Ġthis": 458,
      "00": 459,
      "Ġim": 460,
      "all": 461,
      "ĠâĢ": 462,
      "ag": 463,
      "Ġhave": 464,
      "out": 465,
      "red": 466,
      "ine": 467,
      "per": 468,
      "Ġab": 469,
      "iz": 470,
      "Ġus": 471,
      "Ġwor": 472,
      "our": 473,
      "gh": 474,
      "Ġint": 475,
      "ome": 476,
      "ust": 477,
      "act": 478,
      "age": 479,
      "Ġ\"": 480,
      "ost": 481,
      "ould": 482,
      "ich": 483,
      ")Ċ": 484,
      "ult": 485,
      "ell": 486,
      "ard": 487,
      "ther": 488,
      "ated": 489,
      "Ġpl": 490,
      "elf": 491,
      "ff": 492,
      "end": 493,
      "ĠO": 494,
      "ans": 495,
      "Ġtheir": 496,
      "ide": 497,
      ":Ċ": 498,
      "ations": 499,
      "Ġyour": 500,
      "The": 501,
      "cl": 502,
      "Ġwhe": 503,
      "ous": 504,
      "du": 505,
      "ak": 506,
      "ast": 507,
      "Ġk": 508,
      "ru": 509,
      "Ġres": 510,
      "Ġcont": 511,
      "orm": 512,
      "Ġcomp": 513,
      "Ġad": 514,
      "ib": 515,
      "ip": 516,
      "Ġthey": 517,
      "Ġall": 518,
      "âĢĻs": 519,
      "cc": 520,
      "ass": 521,
      "ĠU": 522,
      "ere": 523,
      "ap": 524,
      "able": 525,
      "ĠJ": 526,
      "Ġwhich": 527,
      "ear": 528,
      "'s": 529,
      "ame": 530,
      "Ġdis": 531,
      "ong": 532,
      "Ġwill": 533,
      "ie": 534,
      "port": 535,
      "ĠIn": 536,
      "ind": 537,
      "ĠTh": 538,
      "ary": 539,
      "are": 540,
      "ance": 541,
      "ood": 542,
      "19": 543,
      "Ġcl": 544,
      "20": 545,
      "vel": 546,
      "Ġdo": 547,
      "ence": 548,
      "ual": 549,
      "ks": 550,
      "one": 551,
      "ents": 552,
      "ction": 553,
      "ep": 554,
      "Ġmore": 555,
      "ry": 556,
      "Ġhas": 557,
      "ia": 558,
      "ign": 559,
      "Ġme": 560,
      "ach": 561,
      "ime": 562,
      "ile": 563,
      "so": 564,
      "ue": 565,
      ".ĊĊ": 566,
      "ater": 567,
      "Ġother": 568,
      "Ġte": 569,
      "Ġman": 570,
      "Ġj": 571,
      "ress": 572,
      "Ġun": 573,
      "ild": 574,
      "Ġar": 575,
      "Ġbut": 576,
      "ĠĠĠĠĠĠĠĠĠĠĠ": 577,
      "Ġper": 578,
      "ase": 579,
      "ition": 580,
      "av": 581,
      "ice": 582,
      "Ġapp": 583,
      "oo": 584,
      "âĢĿ": 585,
      "ens": 586,
      "int": 587,
      "ces": 588,
      "Ġone": 589,
      "ber": 590,
      "Ġout": 591,
      "Ġif": 592,
      "ack": 593,
      "ely": 594,
      "reat": 595,
      "form": 596,
      "Ġabout": 597,
      "ake": 598,
      "ace": 599,
      "ory": 600,
      "Ġsp": 601,
      "Ġso": 602,
      "ord": 603,
      "Ġev": 604,
      "ors": 605,
      "ang": 606,
      "Ġwere": 607,
      "very": 608,
      "Ġalso": 609,
      "con": 610,
      "au": 611,
      "##": 612,
      "Ġpart": 613,
      "ount": 614,
      "ite": 615,
      "ire": 616,
      "Ġsc": 617,
      "ose": 618,
      ",Ċ": 619,
      "Ġ'": 620,
      "ub": 621,
      "Ġcomm": 622,
      "nder": 623,
      "Ġsy": 624,
      "Ġqu": 625,
      "Ġli": 626,
      "Ġthem": 627,
      "ĠâĢľ": 628,
      "ound": 629,
      "ĠSt": 630,
      "now": 631,
      "iff": 632,
      "ex": 633,
      "ath": 634,
      "----": 635,
      "Ġup": 636,
      "ple": 637,
      "ph": 638,
      "Ġpe": 639,
      "ric": 640,
      "Ġstud": 641,
      "Ġits": 642,
      "Ġpre": 643,
      "ings": 644,
      "pec": 645,
      "ish": 646,
      "ree": 647,
      "Ġwho": 648,
      "olog": 649,
      "Ġinto": 650,
      "ew": 651,
      "ĠK": 652,
      "ail": 653,
      "Ġself": 654,
      "Ġthese": 655,
      "Ġbec": 656,
      "Ġsome": 657,
      "Ġtra": 658,
      "urn": 659,
      "Ġind": 660,
      "ates": 661,
      "Ġwhen": 662,
      "Ġhis": 663,
      "rough": 664,
      "low": 665,
      "ĠIt": 666,
      "Ġhow": 667,
      "ject": 668,
      "vers": 669,
      "Ġ-": 670,
      "Ġtime": 671,
      "ys": 672,
      "Ġro": 673,
      "ays": 674,
      "Ġthere": 675,
      "Ġthan": 676,
      "Ġdiff": 677,
      "Ġmay": 678,
      "ob": 679,
      "ĠThis": 680,
      "ific": 681,
      "king": 682,
      "we": 683,
      "ities": 684,
      "Ġcol": 685,
      "ms": 686,
      "Ġour": 687,
      "Ġbet": 688,
      "erv": 689,
      "ĠCh": 690,
      ").": 691,
      "ata": 692,
      "Ġra": 693,
      "),": 694,
      "rit": 695,
      "Ġunder": 696,
      "ough": 697,
      "Ġem": 698,
      "ople": 699,
      "ĠV": 700,
      "ally": 701,
      "ian": 702,
      "Ġrec": 703,
      "lect": 704,
      "10": 705,
      "Ġag": 706,
      "Ġover": 707,
      "Ġgo": 708,
      "Ġcons": 709,
      "ious": 710,
      "ove": 711,
      "ating": 712,
      "Ġuse": 713,
      "tern": 714,
      "Ġtr": 715,
      "Ġpr": 716,
      "cess": 717,
      "Ġacc": 718,
      "ef": 719,
      "ons": 720,
      "Ġdes": 721,
      "Ġknow": 722,
      "Ġact": 723,
      "clud": 724,
      "ĠY": 725,
      "ren": 726,
      "ient": 727,
      "Ġbeen": 728,
      "lic": 729,
      "cre": 730,
      "row": 731,
      "Ġyear": 732,
      "Ġrel": 733,
      "irst": 734,
      "Ġdef": 735,
      "Ġnew": 736,
      "Ġsuch": 737,
      "stem": 738,
      "te": 739,
      "Ġpeople": 740,
      "ments": 741,
      "ert": 742,
      "get": 743,
      "eth": 744,
      "les": 745,
      "Ġhel": 746,
      "Ġlike": 747,
      "ause": 748,
      "arn": 749,
      "Ġtw": 750,
      "rib": 751,
      "Ġwould": 752,
      "ics": 753,
      "Ġneed": 754,
      "Ġgen": 755,
      "Ġany": 756,
      "Ġwhat": 757,
      "ov": 758,
      "ular": 759,
      "Ġhelp": 760,
      "Ġbl": 761,
      "ll": 762,
      "alth": 763,
      "Ġass": 764,
      "Ġeff": 765,
      "velop": 766,
      "Ġsa": 767,
      "Ġhad": 768,
      "Ġam": 769,
      "Ġthrough": 770,
      "Ġmod": 771,
      "Ġimport": 772,
      "round": 773,
      "Ġspec": 774,
      "Ġfe": 775,
      "ool": 776,
      "mer": 777,
      "ful": 778,
      "Ġob": 779,
      "Ġmost": 780,
      "ced": 781,
      "Ġwork": 782,
      "ures": 783,
      "Ġ$": 784,
      "uring": 785,
      "als": 786,
      "Ġph": 787,
      "ne": 788,
      "Ġinclud": 789,
      "ange": 790,
      "self": 791,
      "ise": 792,
      "Ġdiffere": 793,
      "hed": 794,
      "Ġexp": 795,
      "ict": 796,
      "Ġprov": 797,
      "ility": 798,
      "Ġno": 799,
      "Ġreg": 800,
      "ational": 801,
      "oss": 802,
      "ract": 803,
      "Ġused": 804,
      "ative": 805,
      "ĠĠĠĠĠĠĠĠĠĠĠĠĠĠĠĠ": 806,
      "In": 807,
      "old": 808,
      "200": 809,
      "\\x": 810,
      "ook": 811,
      "ft": 812,
      "Ġonly": 813,
      "18": 814,
      "oth": 815,
      "Ġoff": 816,
      "ark": 817,
      "Ġnum": 818,
      "Ġprodu": 819,
      "Ġimp": 820,
      "Ġtwo": 821,
      "Ġadd": 822,
      "Ġfirst": 823,
      "ram": 824,
      "ck": 825,
      "hen": 826,
      ")ĊĊ": 827,
      "ble": 828,
      "__": 829,
      "ĠâĢĵ": 830,
      "ween": 831,
      "Ġmany": 832,
      "Ġsystem": 833,
      "..": 834,
      "fter": 835,
      "ible": 836,
      "Ġdi": 837,
      "Ġdevelop": 838,
      "erm": 839,
      "ĠUn": 840,
      "Ġpo": 841,
      "Ġret": 842,
      "Ġrem": 843,
      "Ġinv": 844,
      "ased": 845,
      "iss": 846,
      "ution": 847,
      "Ġget": 848,
      "ower": 849,
      "Ġchild": 850,
      "Ġsub": 851,
      "ize": 852,
      "):Ċ": 853,
      "Ġbetween": 854,
      "Ġatt": 855,
      "cy": 856,
      "cept": 857,
      "Ġval": 858,
      "Ġinst": 859,
      "Ġwhere": 860,
      "Ġinter": 861,
      "its": 862,
      "Ġfl": 863,
      "own": 864,
      "Ġac": 865,
      "Ġtrans": 866,
      "ts": 867,
      "Ġinf": 868,
      "ond": 869,
      "Ġco": 870,
      "Ġsur": 871,
      "Ġexam": 872,
      "ty": 873,
      "ps": 874,
      "Ġ#": 875,
      "ss": 876,
      "Ġ[": 877,
      "Ġpol": 878,
      "ife": 879,
      "arch": 880,
      "ten": 881,
      "Ġform": 882,
      "wn": 883,
      "hes": 884,
      "ied": 885,
      "chn": 886,
      "com": 887,
      "Ġbu": 888,
      "Ġsupp": 889,
      "erg": 890,
      "eg": 891,
      "Ġsim": 892,
      "Ġsm": 893,
      "Ġvar": 894,
      "Ġshould": 895,
      "ng": 896,
      "Ġcould": 897,
      "Ġty": 898,
      "ues": 899,
      "Ġlearn": 900,
      "Ġstr": 901,
      "ural": 902,
      "Ġset": 903,
      "ever": 904,
      "ident": 905,
      "Ġwell": 906,
      "ting": 907,
      "12": 908,
      "Ġpres": 909,
      "Ġdifferent": 910,
      "ink": 911,
      "fore": 912,
      "Ġpers": 913,
      "ines": 914,
      "Ġdata": 915,
      "ience": 916,
      "Ġexper": 917,
      "ily": 918,
      "gan": 919,
      "ax": 920,
      "ick": 921,
      "Ġresp": 922,
      "Ġher": 923,
      "ade": 924,
      "Ġ\\": 925,
      "ĠHe": 926,
      "Ġhealth": 927,
      "oci": 928,
      "ature": 929,
      "arg": 930,
      "Ġhigh": 931,
      "ology": 932,
      "aw": 933,
      "Ġke": 934,
      "ds": 935,
      "Ġthen": 936,
      "ives": 937,
      "ists": 938,
      "Ġwater": 939,
      "Ġjust": 940,
      "Ġdisc": 941,
      "uch": 942,
      "Ġsign": 943,
      "Ġmake": 944,
      "Ġevery": 945,
      "uc": 946,
      "Ġfun": 947,
      "aking": 948,
      "Ġresult": 949,
      "ants": 950,
      "Ġeven": 951,
      "Ġeach": 952,
      "ness": 953,
      "Ġexpl": 954,
      "ins": 955,
      "put": 956,
      "ism": 957,
      "stand": 958,
      "Ġdet": 959,
      "ruct": 960,
      "Ġyears": 961,
      "Ġworld": 962,
      "hat": 963,
      "iew": 964,
      "Ġref": 965,
      "čĊ": 966,
      "Ġcall": 967,
      "vent": 968,
      "ollow": 969,
      "Ġgener": 970,
      "iel": 971,
      "ically": 972,
      "oy": 973,
      "ars": 974,
      "ec": 975,
      "Ġrequ": 976,
      "ont": 977,
      "15": 978,
      "Ġsee": 979,
      "Ġdist": 980,
      "formation": 981,
      "Ġcre": 982,
      "other": 983,
      "ix": 984,
      "ited": 985,
      "Ġgra": 986,
      "ages": 987,
      "Ġreturn": 988,
      "Ġed": 989,
      "ices": 990,
      "ection": 991,
      "Ġway": 992,
      "Ġbecause": 993,
      "?Ċ": 994,
      "Ġrese": 995,
      "Ġusing": 996,
      "chool": 997,
      "Ġbel": 998,
      "ually": 999,
      "**": 1000,
      "Ġtechn": 1001,
      "Ġ+": 1002,
      "Ġeffect": 1003,
      "Ġhum": 1004,
      "Ġprocess": 1005,
      "Ġext": 1006,
      "ward": 1007,
      "Ġfound": 1008,
      "Ġthose": 1009,
      "ĠWe": 1010,
      "Ġlong": 1011,
      "Ġcommun": 1012,
      "Ġmed": 1013,
      "--------": 1014,
      "ĠĠĠĠĠĠĠĠĠĠĠĠĠĠĠ": 1015,
      "imes": 1016,
      "Ġafter": 1017,
      "Ġcent": 1018,
      "Ġloc": 1019,
      "ern": 1020,
      "ential": 1021,
      "Ġincre": 1022,
      "ized": 1023,
      "Ġcount": 1024,
      "',": 1025,
      "Ġmy": 1026,
      "meric": 1027,
      "Ġpat": 1028,
      "Ġcur": 1029,
      "Ġdec": 1030,
      "els": 1031,
      "Ġent": 1032,
      "Ġins": 1033,
      "Ġtest": 1034,
      "Ġart": 1035,
      "ĠPro": 1036,
      "arm": 1037,
      "Ġfact": 1038,
      "Ġfollow": 1039,
      "Ġpartic": 1040,
      "Ġprog": 1041,
      "ety": 1042,
      "16": 1043,
      "Ġwhile": 1044,
      "ands": 1045,
      "Ġsol": 1046,
      "hip": 1047,
      "iron": 1048,
      "Ġduring": 1049,
      "Ġcomple": 1050,
      "_d": 1051,
      "Ġvery": 1052,
      "Ġread": 1053,
      "xt": 1054,
      "led": 1055,
      "Ġfind": 1056,
      "ork": 1057,
      "Th": 1058,
      "ock": 1059,
      "âĢĻt": 1060,
      "read": 1061,
      "ases": 1062,
      "ning": 1063,
      "17": 1064,
      "hem": 1065,
      "eng": 1066,
      "ĠFor": 1067,
      "ĠAl": 1068,
      "arly": 1069,
      "Ġrep": 1070,
      "ĠCom": 1071,
      "Ġaut": 1072,
      "Ġca": 1073,
      "Ġdoes": 1074,
      "Ġbeing": 1075,
      "\"\"": 1076,
      "Ġright": 1077,
      "Ġsk": 1078,
      "'t": 1079,
      "ĠAs": 1080,
      "Ġequ": 1081,
      "ody": 1082,
      "Ġboth": 1083,
      "Ġproble": 1084,
      "Ġshe": 1085,
      "Ġlife": 1086,
      "Ġfam": 1087,
      "ĠAmeric": 1088,
      "Ġlead": 1089,
      "ode": 1090,
      "ivid": 1091,
      "io": 1092,
      "11": 1093,
      "Ġmin": 1094,
      "Ġback": 1095,
      "ather": 1096,
      ".,": 1097,
      "Ġown": 1098,
      "ĠIf": 1099,
      "Ġdep": 1100,
      "Âł": 1101,
      "cent": 1102,
      "Ġgl": 1103,
      "Ġcor": 1104,
      "ĠAn": 1105,
      "ved": 1106,
      "ext": 1107,
      "ĠRe": 1108,
      "Ġcar": 1109,
      "Ġpub": 1110,
      "Ġappro": 1111,
      "ĠHow": 1112,
      "Ġhist": 1113,
      "tle": 1114,
      "ality": 1115,
      "Ġsame": 1116,
      "par": 1117,
      "gg": 1118,
      "Ġmuch": 1119,
      "up": 1120,
      "Ġimportant": 1121,
      "Ġgrou": 1122,
      "Ġmat": 1123,
      "iqu": 1124,
      "_s": 1125,
      "Ġinformation": 1126,
      "Ġend": 1127,
      "nce": 1128,
      "ĠThey": 1129,
      "Ġnumber": 1130,
      "Ġmon": 1131,
      "13": 1132,
      "inal": 1133,
      "ined": 1134,
      "ien": 1135,
      "Ġshow": 1136,
      "dition": 1137,
      "Ġunderstand": 1138,
      "Ġclass": 1139,
      "ivers": 1140,
      "Ġel": 1141,
      "Ġgrow": 1142,
      "pr": 1143,
      "Ġmain": 1144,
      "Ġconf": 1145,
      "ale": 1146,
      "ected": 1147,
      "Ġperson": 1148,
      "viron": 1149,
      "to": 1150,
      "the": 1151,
      "Ġlevel": 1152,
      "ave": 1153,
      "14": 1154,
      "Ġav": 1155,
      "Ġbefore": 1156,
      "ethod": 1157,
      "ute": 1158,
      "==": 1159,
      "ional": 1160,
      "de": 1161,
      "ted": 1162,
      "Ġstudents": 1163,
      "Ġpoint": 1164,
      "####": 1165,
      "Ġmade": 1166,
      "ier": 1167,
      "Ġstudy": 1168,
      "Ġchildren": 1169,
      "Ġstart": 1170,
      "rent": 1171,
      "uss": 1172,
      "any": 1173,
      "Ġsaid": 1174,
      "der": 1175,
      "ves": 1176,
      "ving": 1177,
      "(self": 1178,
      "vern": 1179,
      "Ġpop": 1180,
      "Ġsmall": 1181,
      "irect": 1182,
      "Ġexample": 1183,
      "Ġgood": 1184,
      "val": 1185,
      "Ġfood": 1186,
      "und": 1187,
      "ince": 1188,
      "Ġsom": 1189,
      "Ġbr": 1190,
      "Ġpower": 1191,
      "ĠAr": 1192,
      "Ġposs": 1193,
      "ets": 1194,
      "akes": 1195,
      "Ġtoo": 1196,
      "Ġoften": 1197,
      "anc": 1198,
      "Ġaround": 1199,
      "rol": 1200,
      "Ġop": 1201,
      "Ġ{": 1202,
      "Ġagain": 1203,
      "Ġvis": 1204,
      "Ġlit": 1205,
      "ergy": 1206,
      "air": 1207,
      "Ġprovid": 1208,
      "arge": 1209,
      "Ġstate": 1210,
      "Ġmem": 1211,
      "itions": 1212,
      "Ġconst": 1213,
      "Ġdesign": 1214,
      "ield": 1215,
      "Ġschool": 1216,
      "ross": 1217,
      ".âĢĿ": 1218,
      "Ġactiv": 1219,
      "Ġpar": 1220,
      "000": 1221,
      "Ġprot": 1222,
      "Ġwithin": 1223,
      "tt": 1224,
      "Ġallow": 1225,
      "Ġserv": 1226,
      "Ġless": 1227,
      "Ġdown": 1228,
      "Ġnow": 1229,
      "str": 1230,
      "Ġcontin": 1231,
      "Ġmight": 1232,
      "ering": 1233,
      "Ġtake": 1234,
      "iven": 1235,
      "app": 1236,
      "ization": 1237,
      "_p": 1238,
      "Ġ&": 1239,
      "Ġser": 1240,
      ".s": 1241,
      "Ġpract": 1242,
      "rain": 1243,
      "ulation": 1244,
      "iving": 1245,
      "Ġsupport": 1246,
      "ters": 1247,
      "ral": 1248,
      "Ġday": 1249,
      "vironment": 1250,
      "ĠInd": 1251,
      "ocial": 1252,
      "land": 1253,
      "Ġmust": 1254,
      "omen": 1255,
      "ital": 1256,
      "ull": 1257,
      "Ġorgan": 1258,
      "Ġcalled": 1259,
      "ĠYou": 1260,
      "Ġest": 1261,
      "Ġquest": 1262,
      "ividual": 1263,
      "ĠSe": 1264,
      "ared": 1265,
      "Ġtreat": 1266,
      "name": 1267,
      "ains": 1268,
      "Ġhuman": 1269,
      "-s": 1270,
      "-b": 1271,
      "rue": 1272,
      "Ġredu": 1273,
      "ished": 1274,
      "ption": 1275,
      "Ġcare": 1276,
      "day": 1277,
      "ired": 1278,
      "ven": 1279,
      "Ġgu": 1280,
      ".\"": 1281,
      "Ġcle": 1282,
      "Ġbuild": 1283,
      "Ġthough": 1284,
      "Ġocc": 1285,
      "raph": 1286,
      "Ġpos": 1287,
      "Ġplan": 1288,
      "Ġmet": 1289,
      "line": 1290,
      "Ġadv": 1291,
      "acter": 1292,
      "ĠBut": 1293,
      "Ġdid": 1294,
      "ĠThese": 1295,
      "ĠSc": 1296,
      "Ġelect": 1297,
      "Ġresearch": 1298,
      "ify": 1299,
      "Ġthree": 1300,
      "Ġhim": 1301,
      "ability": 1302,
      "ah": 1303,
      "_f": 1304,
      "('": 1305,
      "Ġcell": 1306,
      "ox": 1307,
      "Ġmethod": 1308,
      "Ġris": 1309,
      "Ġplay": 1310,
      "ense": 1311,
      "Ġindividual": 1312,
      "âĢĶ": 1313,
      "30": 1314,
      "ash": 1315,
      "Ġbody": 1316,
      "bers": 1317,
      "199": 1318,
      "Ġcult": 1319,
      "Ġcommon": 1320,
      "oh": 1321,
      "Ġfunction": 1322,
      "Ġbeh": 1323,
      "_t": 1324,
      "ource": 1325,
      "ator": 1326,
      "ered": 1327,
      "pect": 1328,
      "ĠNew": 1329,
      "Ġaw": 1330,
      "\",": 1331,
      "Ġeng": 1332,
      "50": 1333,
      "This": 1334,
      "Ġx": 1335,
      "Ġinc": 1336,
      "Ġwant": 1337,
      "]Ċ": 1338,
      "ĠEx": 1339,
      "ium": 1340,
      "erest": 1341,
      "Ġvari": 1342,
      "Ġpass": 1343,
      "Ġaff": 1344,
      "Ġwrit": 1345,
      "Ġident": 1346,
      "ately": 1347,
      "ron": 1348,
      "Ġtyp": 1349,
      "ĠWh": 1350,
      "ources": 1351,
      "Ġide": 1352,
      "rodu": 1353,
      "py": 1354,
      "ury": 1355,
      "aterial": 1356,
      "ination": 1357,
      "hers": 1358,
      "Ġpot": 1359,
      "itive": 1360,
      "Ġincluding": 1361,
      "ug": 1362,
      "angu": 1363,
      "||": 1364,
      "Ġdise": 1365,
      "ĠCon": 1366,
      "Ġtem": 1367,
      "Ġanal": 1368,
      "ids": 1369,
      "ively": 1370,
      "Ġcour": 1371,
      "ples": 1372,
      "ĠAnd": 1373,
      "Ġchar": 1374,
      "ining": 1375,
      "mon": 1376,
      "Ġ:": 1377,
      "iversity": 1378,
      "ateg": 1379,
      "ider": 1380,
      "Ġgreat": 1381,
      "St": 1382,
      "aj": 1383,
      "ead": 1384,
      "Ġreal": 1385,
      "ĠAd": 1386,
      "ner": 1387,
      "cond": 1388,
      "oad": 1389,
      "oun": 1390,
      "Ġknown": 1391,
      ").Ċ": 1392,
      "conom": 1393,
      "Ġchange": 1394,
      "Ġeduc": 1395,
      "Ġgovern": 1396,
      "Ġele": 1397,
      "iod": 1398,
      "ertain": 1399,
      "Ġeas": 1400,
      "ouse": 1401,
      "ĠThere": 1402,
      "_l": 1403,
      "Ġstill": 1404,
      "Ġdon": 1405,
      "Ġchang": 1406,
      "ories": 1407,
      "ries": 1408,
      "Ġwithout": 1409,
      "Ġiss": 1410,
      "less": 1411,
      "Ġprof": 1412,
      "Ġlist": 1413,
      "Ġenergy": 1414,
      "Ġgre": 1415,
      "âĢĵ": 1416,
      "Ġhand": 1417,
      "_m": 1418,
      "ape": 1419,
      "Ġlet": 1420,
      "ray": 1421,
      "Ġpresent": 1422,
      "Ġimpro": 1423,
      "Ġconn": 1424,
      "ived": 1425,
      "Ġreport": 1426,
      "ration": 1427,
      "Ġanother": 1428,
      "atic": 1429,
      "ccess": 1430,
      "Ġproduct": 1431,
      "Ġenvironment": 1432,
      "Ġsym": 1433,
      "pos": 1434,
      "ĠDe": 1435,
      "tain": 1436,
      "Ġproject": 1437,
      "arent": 1438,
      "orn": 1439,
      "Ġplace": 1440,
      "ental": 1441,
      "lish": 1442,
      "ially": 1443,
      "Ġdr": 1444,
      "oms": 1445,
      "Ġsocial": 1446,
      "inc": 1447,
      "Ġspe": 1448,
      "ior": 1449,
      "Ġmeas": 1450,
      "Ġinterest": 1451,
      "Ġsl": 1452,
      "Ġdirect": 1453,
      "bs": 1454,
      "25": 1455,
      "ank": 1456,
      "Ġphys": 1457,
      "iness": 1458,
      "Ġpublic": 1459,
      "Ġmaterial": 1460,
      "ĠIs": 1461,
      "Ġmean": 1462,
      "Ġinvol": 1463,
      "Ġpur": 1464,
      "Ġcap": 1465,
      "ision": 1466,
      "Ġcal": 1467,
      "Ġdel": 1468,
      "Ġ.": 1469,
      "agn": 1470,
      "rop": 1471,
      "Ġbetter": 1472,
      "Ġname": 1473,
      "ason": 1474,
      "over": 1475,
      "Ġche": 1476,
      "ified": 1477,
      "Ġproper": 1478,
      "oint": 1479,
      "ote": 1480,
      "Ġoper": 1481,
      "Ġlight": 1482,
      "Ġdesc": 1483,
      "Ġet": 1484,
      "(\"": 1485,
      "Ġtype": 1486,
      "Ġbre": 1487,
      "ĠQ": 1488,
      "Ġcreat": 1489,
      "gen": 1490,
      "ery": 1491,
      "Ġsignific": 1492,
      "Ġopp": 1493,
      "irc": 1494,
      "Ġlearning": 1495,
      "ently": 1496,
      "Ġhere": 1497,
      "Ġstand": 1498,
      "Ġsit": 1499,
      "Ġvalue": 1500,
      "por": 1501,
      "ological": 1502,
      "Ġfew": 1503,
      "ording": 1504,
      "ĠHowever": 1505,
      "ton": 1506,
      "Ġben": 1507,
      "man": 1508,
      "Ġbelie": 1509,
      "_c": 1510,
      "ames": 1511,
      "err": 1512,
      "Ġlarge": 1513,
      "Ġprom": 1514,
      "here": 1515,
      "ways": 1516,
      "Ġtop": 1517,
      "Ġopen": 1518,
      "Ġperform": 1519,
      "ends": 1520,
      "Ġdevelopment": 1521,
      "az": 1522,
      "atch": 1523,
      "view": 1524,
      "lu": 1525,
      "//": 1526,
      "Ġmult": 1527,
      "Ġbas": 1528,
      "li": 1529,
      "ats": 1530,
      "ots": 1531,
      "ument": 1532,
      "Ġimm": 1533,
      "outh": 1534,
      "Ġhy": 1535,
      "Ġobject": 1536,
      "Ġline": 1537,
      "Ġcaus": 1538,
      "uro": 1539,
      "ĠSh": 1540,
      "ĠRes": 1541,
      "ĠEng": 1542,
      ":ĊĊ": 1543,
      "Ġgroup": 1544,
      "Ġinclude": 1545,
      "Ġnon": 1546,
      "Ġmus": 1547,
      "Ġbest": 1548,
      "Ġfin": 1549,
      ",âĢĿ": 1550,
      "Ġlook": 1551,
      "':": 1552,
      "Ġve": 1553,
      "pro": 1554,
      "imate": 1555,
      "ills": 1556,
      "hor": 1557,
      "Ġsever": 1558,
      "Ġbecome": 1559,
      "ĠâĢĺ": 1560,
      "Ġdev": 1561,
      "Ġmodel": 1562,
      "from": 1563,
      "Ġrepres": 1564,
      "ances": 1565,
      "eral": 1566,
      "Ġkeep": 1567,
      "Ġarea": 1568,
      "Ġmark": 1569,
      "Ġcontrol": 1570,
      "ention": 1571,
      "Ġmeans": 1572,
      "ians": 1573,
      "Ġmove": 1574,
      "ething": 1575,
      "Ġrest": 1576,
      "Ġcurrent": 1577,
      "rac": 1578,
      "ym": 1579,
      "erc": 1580,
      "Ġcreate": 1581,
      "Ġlangu": 1582,
      "Ġorder": 1583,
      "Ġfil": 1584,
      "-f": 1585,
      "Ġhapp": 1586,
      "atural": 1587,
      "['": 1588,
      "ients": 1589,
      "Ġfeel": 1590,
      "Ġhome": 1591,
      "arth": 1592,
      "Ġbased": 1593,
      "']": 1594,
      "yn": 1595,
      "Ġthink": 1596,
      "Ġlaw": 1597,
      "Ġfollowing": 1598,
      "Ġhistory": 1599,
      "arc": 1600,
      "Ġothers": 1601,
      "Ġleg": 1602,
      "Ġ\"\"\"": 1603,
      "Ġamong": 1604,
      "Ġlim": 1605,
      "Ġparticular": 1606,
      "âĢ¢": 1607,
      "ression": 1608,
      "Ġprogram": 1609,
      "Ġthings": 1610,
      "ocus": 1611,
      "Ġcase": 1612,
      "ogn": 1613,
      "It": 1614,
      "ĠAmerican": 1615,
      "Ġstruct": 1616,
      "Ġprovide": 1617,
      "ique": 1618,
      "Ġfac": 1619,
      "of": 1620,
      "Ġfre": 1621,
      "Ġagainst": 1622,
      "ĠWhen": 1623,
      "ĠBy": 1624,
      "ling": 1625,
      "Ġopt": 1626,
      "ĠPh": 1627,
      "ograph": 1628,
      "urther": 1629,
      "Ġlast": 1630,
      "Ġsomething": 1631,
      "Ġseveral": 1632,
      "Ġorig": 1633,
      "Ġanim": 1634,
      "Ġvarious": 1635,
      "Ġold": 1636,
      "ww": 1637,
      "Ġrun": 1638,
      "-d": 1639,
      "$$": 1640,
      "Ġtre": 1641,
      "ĠTo": 1642,
      "Ġproblem": 1643,
      "ards": 1644,
      "Ġpossible": 1645,
      "Ġwomen": 1646,
      "Ġtry": 1647,
      "Ġsaf": 1648,
      "amp": 1649,
      "Ġpain": 1650,
      "Ġess": 1651,
      "ann": 1652,
      "ĠCl": 1653,
      "ailable": 1654,
      ".S": 1655,
      "Ġlab": 1656,
      "ission": 1657,
      "be": 1658,
      "Ġbeg": 1659,
      "br": 1660,
      "âĢľ": 1661,
      "oid": 1662,
      "Ġfamily": 1663,
      "ĠZ": 1664,
      "()Ċ": 1665,
      "orth": 1666,
      "ĠUniversity": 1667,
      "ember": 1668,
      "ribut": 1669,
      "Ġgiven": 1670,
      "40": 1671,
      "Ġlow": 1672,
      "work": 1673,
      "Ġunt": 1674,
      "Ġeconom": 1675,
      "sc": 1676,
      "Ġant": 1677,
      "Ġenc": 1678,
      "ajor": 1679,
      "icle": 1680,
      "Ġes": 1681,
      "Ġpost": 1682,
      "Ġsay": 1683,
      "Ġturn": 1684,
      "olution": 1685,
      "Ġearly": 1686,
      "Ġdue": 1687,
      "ER": 1688,
      "Ġbus": 1689,
      "ĠPl": 1690,
      "Ġsignificant": 1691,
      "Ġperiod": 1692,
      "Ġfore": 1693,
      "Ġaccess": 1694,
      "Ġsince": 1695,
      "ĠSo": 1696,
      "rist": 1697,
      "Ġcomput": 1698,
      "oring": 1699,
      ",\"": 1700,
      "ane": 1701,
      "Ġbi": 1702,
      "Ġpotential": 1703,
      "ides": 1704,
      "()": 1705,
      "ditions": 1706,
      "Ġz": 1707,
      "Ġi": 1708,
      "Ġdisease": 1709,
      "Ġchall": 1710,
      "Ġ==": 1711,
      "ole": 1712,
      "cul": 1713,
      "Ġrisk": 1714,
      "ication": 1715,
      "lished": 1716,
      "Ġkey": 1717,
      "Ġbo": 1718,
      "cing": 1719,
      "ems": 1720,
      "Ġaddition": 1721,
      "illion": 1722,
      "Ġoccur": 1723,
      "Ġmil": 1724,
      "Ġlocal": 1725,
      "Ġhead": 1726,
      "min": 1727,
      "Ġair": 1728,
      "Ġter": 1729,
      "Ġbenef": 1730,
      "ĠSp": 1731,
      "Ġsecond": 1732,
      "uture": 1733,
      "Ġ*": 1734,
      "idence": 1735,
      "Ġsuccess": 1736,
      "22": 1737,
      "Ġland": 1738,
      "Ġtimes": 1739,
      "not": 1740,
      "ortun": 1741,
      "ĠEn": 1742,
      "Ġtoget": 1743,
      "Ġprint": 1744,
      "Ġtogether": 1745,
      "Ġview": 1746,
      "def": 1747,
      "Ġhig": 1748,
      "Ġcertain": 1749,
      "Ġcost": 1750,
      "Ġblood": 1751,
      "Ġfocus": 1752,
      "://": 1753,
      "Ġgr": 1754,
      "Ġarg": 1755,
      "ency": 1756,
      "ĠCol": 1757,
      "Ġmaking": 1758,
      "100": 1759,
      "Ġcr": 1760,
      "use": 1761,
      "ploy": 1762,
      "osed": 1763,
      "raw": 1764,
      "As": 1765,
      "Ġvol": 1766,
      "ised": 1767,
      "aps": 1768,
      "Ġgovernment": 1769,
      "ilar": 1770,
      "aut": 1771,
      "Ġcrit": 1772,
      "Ġspecific": 1773,
      "-c": 1774,
      "sel": 1775,
      "Ġtri": 1776,
      "mit": 1777,
      "aper": 1778,
      "Ġsystems": 1779,
      "Ġalong": 1780,
      "Ġavailable": 1781,
      "Ġcome": 1782,
      "Ġable": 1783,
      "Ġscient": 1784,
      "cer": 1785,
      "ik": 1786,
      "Ġdiscuss": 1787,
      "sw": 1788,
      "We": 1789,
      "ret": 1790,
      "ask": 1791,
      "Ġens": 1792,
      "Ġobs": 1793,
      "Ġassoci": 1794,
      "verse": 1795,
      "Ġcause": 1796,
      "Ġelse": 1797,
      "ended": 1798,
      "face": 1799,
      "eter": 1800,
      "ope": 1801,
      "Ġresults": 1802,
      "Ġcomb": 1803,
      "ina": 1804,
      "obal": 1805,
      "Ġimpact": 1806,
      "Ġmajor": 1807,
      "alk": 1808,
      "ending": 1809,
      "ĠĠĠĠĠĠĠĠĠĠĠĠĠĠĠĠĠĠĠ": 1810,
      "Ġconc": 1811,
      "Ġsoci": 1812,
      "Ġdeterm": 1813,
      "Ġwhy": 1814,
      "24": 1815,
      "agement": 1816,
      "Ġlik": 1817,
      "ledge": 1818,
      "Ġareas": 1819,
      "Ġbro": 1820,
      "Ġpress": 1821,
      "{\\": 1822,
      "ably": 1823,
      "ĠWhat": 1824,
      "though": 1825,
      "ooks": 1826,
      "Ġspecies": 1827,
      "ables": 1828,
      "What": 1829,
      "Ġmen": 1830,
      "Ġspace": 1831,
      "Ġproblems": 1832,
      "ĠUnited": 1833,
      "Ġapplic": 1834,
      "Ġacross": 1835,
      "Ġcomplex": 1836,
      "Ġhard": 1837,
      "ĠAt": 1838,
      "Ġrepresent": 1839,
      "for": 1840,
      "aster": 1841,
      "60": 1842,
      "Ġsing": 1843,
      "Ġintern": 1844,
      "Ġstep": 1845,
      "aces": 1846,
      "ysis": 1847,
      "idd": 1848,
      "Ġexist": 1849,
      "by": 1850,
      "Ġinvest": 1851,
      "ither": 1852,
      "Ġtool": 1853,
      "right": 1854,
      "Ġrange": 1855,
      "ators": 1856,
      "Ġnatural": 1857,
      "ĠOr": 1858,
      "Ġalways": 1859,
      "Ġbehav": 1860,
      "sy": 1861,
      "Ġfour": 1862,
      "ams": 1863,
      "ggest": 1864,
      "hy": 1865,
      "ilities": 1866,
      "osp": 1867,
      "Ġlanguage": 1868,
      "Ġcharacter": 1869,
      "Ġuntil": 1870,
      "Ġrece": 1871,
      "ule": 1872,
      ".p": 1873,
      "Ġlog": 1874,
      "ĠIm": 1875,
      "Ġlarg": 1876,
      "Ġprevent": 1877,
      "ones": 1878,
      "ĠGod": 1879,
      "Ġrad": 1880,
      "istic": 1881,
      "Ġflow": 1882,
      "Ġspecial": 1883,
      "Ġrele": 1884,
      "clus": 1885,
      "Ġconsider": 1886,
      "Ġrelations": 1887,
      "Ġplant": 1888,
      "Ġpercent": 1889,
      "Ġfri": 1890,
      "AT": 1891,
      "Ġnet": 1892,
      "Ġcountry": 1893,
      "ek": 1894,
      "Ġsw": 1895,
      "ma": 1896,
      "Ġput": 1897,
      "----------------": 1898,
      "Ġlittle": 1899,
      "Ġcourse": 1900,
      "ained": 1901,
      "ĠâĢĶ": 1902,
      "asing": 1903,
      "Ġworks": 1904,
      "Ġbook": 1905,
      "ths": 1906,
      "If": 1907,
      "icult": 1908,
      "Ġfree": 1909,
      "|Ċ": 1910,
      "Ġtoward": 1911,
      "23": 1912,
      "Ġnext": 1913,
      "Ġfar": 1914,
      "Ġsuggest": 1915,
      "-m": 1916,
      "rem": 1917,
      "vious": 1918,
      "Ġfuture": 1919,
      "etic": 1920,
      "ored": 1921,
      "rag": 1922,
      "Ġcommunity": 1923,
      "atures": 1924,
      "ights": 1925,
      "ured": 1926,
      "Ġshort": 1927,
      "Ġtreatment": 1928,
      "Ġmar": 1929,
      "Ġpolit": 1930,
      "Ġlevels": 1931,
      "Ġage": 1932,
      "aring": 1933,
      ".m": 1934,
      ".com": 1935,
      "Ġcirc": 1936,
      "Ġyoung": 1937,
      "ĠNone": 1938,
      "Ġamount": 1939,
      "urope": 1940,
      "Ġpred": 1941,
      "Ġunderstanding": 1942,
      "ffic": 1943,
      "21": 1944,
      "Ġnecess": 1945,
      "80": 1946,
      "\":": 1947,
      ".âĢĿĊ": 1948,
      "ee": 1949,
      "iting": 1950,
      "onse": 1951,
      "Ġsimilar": 1952,
      "Ġrespons": 1953,
      "IN": 1954,
      ".d": 1955,
      ".c": 1956,
      "Ġdem": 1957,
      "Ġtoday": 1958,
      "Ġstrong": 1959,
      "Ġinit": 1960,
      "ĠStates": 1961,
      "):": 1962,
      "ĠTe": 1963,
      "Ġsum": 1964,
      "Ġtext": 1965,
      "Ġexperience": 1966,
      "ĠWor": 1967,
      "Ġwords": 1968,
      "ivity": 1969,
      "ĠX": 1970,
      "ĠOn": 1971,
      "Ġconditions": 1972,
      "Ġrole": 1973,
      "Ġlater": 1974,
      "Ġtechnology": 1975,
      "Ġabove": 1976,
      "Ġsays": 1977,
      "ĠThat": 1978,
      "arget": 1979,
      "Ġways": 1980,
      "thing": 1981,
      ".g": 1982,
      "ES": 1983,
      "Ġindust": 1984,
      "ird": 1985,
      "====": 1986,
      "Ġnorm": 1987,
      "selves": 1988,
      "Ġgive": 1989,
      "atory": 1990,
      "Ġpast": 1991,
      "Ġmov": 1992,
      "af": 1993,
      "omm": 1994,
      "icro": 1995,
      "Ġill": 1996,
      "An": 1997,
      "._": 1998,
      "une": 1999,
      "ĠChrist": 2000,
      "Ġcells": 2001,
      "Ġappear": 2002,
      "stit": 2003,
      "rite": 2004,
      "apt": 2005,
      "Ġquestion": 2006,
      "Ġtemper": 2007,
      "``": 2008,
      "iple": 2009,
      "rans": 2010,
      "-t": 2011,
      "Ġeducation": 2012,
      "Ġvir": 2013,
      "ON": 2014,
      "ĠAf": 2015,
      "isc": 2016,
      "...": 2017,
      "izing": 2018,
      "Ġfield": 2019,
      "Ġneeds": 2020,
      "Ġwar": 2021,
      "Ġkind": 2022,
      "Ġbusiness": 2023,
      "ires": 2024,
      "Ġpath": 2025,
      "Ġconcept": 2026,
      "ĠCan": 2027,
      "Ġheart": 2028,
      "lection": 2029,
      "Ġleft": 2030,
      "ault": 2031,
      "ĠEurope": 2032,
      "let": 2033,
      "class": 2034,
      "Ġworking": 2035,
      "Ġparent": 2036,
      "ĠAll": 2037,
      "iation": 2038,
      "Ġmot": 2039,
      "ĠWith": 2040,
      "Ġchanges": 2041,
      "_n": 2042,
      "ĠBe": 2043,
      "Ġdescrib": 2044,
      "erence": 2045,
      "type": 2046,
      "ger": 2047,
      "Ġinflu": 2048,
      "ification": 2049,
      "Ġ<": 2050,
      "Ġbegin": 2051,
      "aken": 2052,
      "ample": 2053,
      "ours": 2054,
      "Ġtypes": 2055,
      "}}": 2056,
      "Ġauthor": 2057,
      "\"Ċ": 2058,
      "son": 2059,
      "alse": 2060,
      "ware": 2061,
      "ĠOne": 2062,
      "Ġdays": 2063,
      "import": 2064,
      "Ġprofess": 2065,
      "Ġ/": 2066,
      "Ġterm": 2067,
      "Ġconsum": 2068,
      "Ġexperien": 2069,
      "Ġhaving": 2070,
      "-p": 2071,
      "plic": 2072,
      "_{": 2073,
      "oot": 2074,
      "Ġimprove": 2075,
      "ush": 2076,
      "cle": 2077,
      "))Ċ": 2078,
      "Ġsens": 2079,
      "rect": 2080,
      "Ġdifficult": 2081,
      "ĠCent": 2082,
      "ĠFr": 2083,
      "Ġrecord": 2084,
      "aging": 2085,
      "Ġrequire": 2086,
      "Ġprim": 2087,
      "AS": 2088,
      "Ġside": 2089,
      "Ġprob": 2090,
      "ibr": 2091,
      "Ġstat": 2092,
      "Ġ|": 2093,
      "ruction": 2094,
      "etimes": 2095,
      "Ġestab": 2096,
      "],": 2097,
      "Ġwhether": 2098,
      "How": 2099,
      "duct": 2100,
      "ibility": 2101,
      "Ġinteg": 2102,
      "pecially": 2103,
      "Ġey": 2104,
      "Ġenough": 2105,
      "Ch": 2106,
      "Ġusually": 2107,
      "Ġhigher": 2108,
      "Ġteac": 2109,
      "Ġknowledge": 2110,
      "),Ċ": 2111,
      "Ġmakes": 2112,
      "Ġgeneral": 2113,
      "_id": 2114,
      "To": 2115,
      "side": 2116,
      "Ġpolic": 2117,
      "Ġmind": 2118,
      "aves": 2119,
      "Ġessential": 2120,
      "Ġdig": 2121,
      "ales": 2122,
      "Ġfurther": 2123,
      "Ġaccount": 2124,
      "Ġcy": 2125,
      "Ġfile": 2126,
      "inking": 2127,
      "Ġincrease": 2128,
      "Ġsize": 2129,
      "ĠUS": 2130,
      "chie": 2131,
      "reg": 2132,
      "omes": 2133,
      "Ġlikely": 2134,
      "='": 2135,
      "rel": 2136,
      "ĉĉ": 2137,
      "ohn": 2138,
      "oney": 2139,
      "There": 2140,
      "ĠBl": 2141,
      "Ġfull": 2142,
      "iction": 2143,
      "Ġcontain": 2144,
      "Ġupon": 2145,
      "ĠNational": 2146,
      "Ġresources": 2147,
      "70": 2148,
      "Ġgoing": 2149,
      "Ġaway": 2150,
      "Ġleast": 2151,
      "ued": 2152,
      "add": 2153,
      "AR": 2154,
      "ening": 2155,
      "Ġnever": 2156,
      ".t": 2157,
      "ĠSome": 2158,
      "play": 2159,
      "Ġconcern": 2160,
      "For": 2161,
      "Ġtradition": 2162,
      "Ġaddress": 2163,
      "cur": 2164,
      "Ġur": 2165,
      "Ġrelationship": 2166,
      "yle": 2167,
      "Ġstory": 2168,
      "utions": 2169,
      "att": 2170,
      "arl": 2171,
      "Ġstrateg": 2172,
      "ising": 2173,
      "Ġsure": 2174,
      "ĠMed": 2175,
      "Ġevent": 2176,
      "Ġhowever": 2177,
      "Ġvers": 2178,
      "Ġskills": 2179,
      "Ġlay": 2180,
      "Ġbig": 2181,
      "Ġgroups": 2182,
      "Ġver": 2183,
      "Ġchalleng": 2184,
      "Ġissues": 2185,
      "Ġcentury": 2186,
      ".get": 2187,
      "########": 2188,
      "Ġbrain": 2189,
      "ring": 2190,
      "_b": 2191,
      "ĠĠĠĠĠ": 2192,
      "Ġpopulation": 2193,
      "action": 2194,
      "ript": 2195,
      "ilt": 2196,
      "ipp": 2197,
      "Ġobserv": 2198,
      "most": 2199,
      "opy": 2200,
      "Ġsingle": 2201,
      "Ġgrowth": 2202,
      "Ġneg": 2203,
      "lam": 2204,
      "Ġcollect": 2205,
      "ooking": 2206,
      "Ġvalues": 2207,
      "Ġcountries": 2208,
      "acc": 2209,
      "ourn": 2210,
      "Ġquestions": 2211,
      "aching": 2212,
      "Ġansw": 2213,
      "ĠAfric": 2214,
      "Ġdeath": 2215,
      "ready": 2216,
      "Ġground": 2217,
      "ength": 2218,
      "Ġloss": 2219,
      "Ġphysical": 2220,
      "(Ċ": 2221,
      "Ġsimple": 2222,
      "Ġsubject": 2223,
      "Ġask": 2224,
      "aim": 2225,
      "lab": 2226,
      "Ġprotect": 2227,
      "ctions": 2228,
      "ison": 2229,
      "Ġhistor": 2230,
      "Ġsuper": 2231,
      "Ġmass": 2232,
      "Ġrecogn": 2233,
      "apter": 2234,
      "Ġchem": 2235,
      "Ġespecially": 2236,
      "Ġglobal": 2237,
      "verage": 2238,
      "Ġeffort": 2239,
      "ttp": 2240,
      "ival": 2241,
      "Ġscience": 2242,
      "ott": 2243,
      "ils": 2244,
      "Ġtot": 2245,
      "alf": 2246,
      "uation": 2247,
      "Ġ$$": 2248,
      "Ġeffects": 2249,
      "org": 2250,
      "Ġfund": 2251,
      "26": 2252,
      "Ġreason": 2253,
      "Ġnear": 2254,
      "Ġlower": 2255,
      "ites": 2256,
      "Ġpaper": 2257,
      "sequ": 2258,
      "unt": 2259,
      "Ġcases": 2260,
      "Ġever": 2261,
      "Ġsource": 2262,
      "Ġrather": 2263,
      "Ġdoc": 2264,
      "Ġreally": 2265,
      "Ġresearc": 2266,
      "Ġindic": 2267,
      "ctor": 2268,
      "Ġexc": 2269,
      "Ġopportun": 2270,
      "28": 2271,
      "Ġdom": 2272,
      "Ġachie": 2273,
      "acy": 2274,
      "ystem": 2275,
      "ĠGen": 2276,
      "Ġdam": 2277,
      "roll": 2278,
      "Ġplants": 2279,
      "Ġcancer": 2280,
      "Ġemploy": 2281,
      "inary": 2282,
      "Ġeither": 2283,
      "')Ċ": 2284,
      "NA": 2285,
      "',Ċ": 2286,
      "Ġactivities": 2287,
      "Ġstudies": 2288,
      "198": 2289,
      "Ġdetail": 2290,
      "ĠLe": 2291,
      "27": 2292,
      "ok": 2293,
      "Ġparticip": 2294,
      "Ġbecame": 2295,
      "Ġabs": 2296,
      "!Ċ": 2297,
      "ounds": 2298,
      "Ġwind": 2299,
      "ptoms": 2300,
      "Ġassociated": 2301,
      "rad": 2302,
      "Ġmillion": 2303,
      "lying": 2304,
      "rug": 2305,
      "Ġword": 2306,
      "plement": 2307,
      "Ġconnect": 2308,
      "ĠBrit": 2309,
      "Ġindividuals": 2310,
      "asc": 2311,
      "elling": 2312,
      "Ġfrequ": 2313,
      "ises": 2314,
      "rec": 2315,
      "Ġalready": 2316,
      "Ġpattern": 2317,
      "Ġbelow": 2318,
      "ume": 2319,
      "Ġaffect": 2320,
      "ID": 2321,
      "_name": 2322,
      "Ġphot": 2323,
      "epend": 2324,
      "Ġhold": 2325,
      "itud": 2326,
      "eds": 2327,
      "nces": 2328,
      "Al": 2329,
      "edi": 2330,
      "cont": 2331,
      "Ġemb": 2332,
      "Ġintrodu": 2333,
      "Ġ_": 2334,
      "oman": 2335,
      ";Ċ": 2336,
      "OR": 2337,
      "ney": 2338,
      "Ġport": 2339,
      "29": 2340,
      "Ġrate": 2341,
      "illed": 2342,
      "Ġcho": 2343,
      "Ġpatients": 2344,
      "Ġdeg": 2345,
      "Ġnature": 2346,
      "ari": 2347,
      "ĠCont": 2348,
      "ream": 2349,
      "overed": 2350,
      "set": 2351,
      "raft": 2352,
      "ae": 2353,
      "rams": 2354,
      "Ġmaintain": 2355,
      "rict": 2356,
      "Ġdone": 2357,
      "Ġbuilding": 2358,
      "Ġmodern": 2359,
      "Ġpractice": 2360,
      "ler": 2361,
      "Ġrelig": 2362,
      "inter": 2363,
      "sych": 2364,
      "igure": 2365,
      "Ġrequired": 2366,
      "ules": 2367,
      "Ġseen": 2368,
      "ences": 2369,
      "ĠAm": 2370,
      "Ġanalysis": 2371,
      "atives": 2372,
      "ĠComm": 2373,
      "Ġunique": 2374,
      "Ġut": 2375,
      "Ġ%": 2376,
      "place": 2377,
      "arr": 2378,
      "Ġimage": 2379,
      "Ġthroughout": 2380,
      "augh": 2381,
      "Ġsurface": 2382,
      "ley": 2383,
      "iol": 2384,
      "earch": 2385,
      "ung": 2386,
      "Ġproduction": 2387,
      "ips": 2388,
      "Ġcity": 2389,
      "Ġonce": 2390,
      "hern": 2391,
      "Ġge": 2392,
      "iver": 2393,
      "ĠJohn": 2394,
      "math": 2395,
      "ĠWorld": 2396,
      "âĢĻre": 2397,
      "Ġfactors": 2398,
      "Ġquality": 2399,
      "fer": 2400,
      "Ġhouse": 2401,
      "ĊĊĊ": 2402,
      "Ġbir": 2403,
      "ĠGo": 2404,
      "Ġflu": 2405,
      "rand": 2406,
      "Ġthought": 2407,
      "Ġfail": 2408,
      "Ġcreated": 2409,
      "Ġcomes": 2410,
      "Ex": 2411,
      "Ġaccording": 2412,
      "Ġliter": 2413,
      "Ġmembers": 2414,
      "Ġ**": 2415,
      "Ġ,": 2416,
      "chan": 2417,
      "Ġsoft": 2418,
      "eb": 2419,
      "ĠMay": 2420,
      "99": 2421,
      "Ġtarget": 2422,
      "ĠGerm": 2423,
      "Ġmeet": 2424,
      "Ġthemselves": 2425,
      "Ġmethods": 2426,
      "Ġpersonal": 2427,
      "Ġrespect": 2428,
      "hold": 2429,
      "Ġactivity": 2430,
      "frac": 2431,
      "olic": 2432,
      "way": 2433,
      "Ġ>": 2434,
      "ĠShe": 2435,
      "Ġproducts": 2436,
      "ĠPr": 2437,
      "enn": 2438,
      "ĠWar": 2439,
      "atter": 2440,
      "leep": 2441,
      "Ġliving": 2442,
      "ĠEnglish": 2443,
      "Ġeffic": 2444,
      "Ġfamil": 2445,
      "odel": 2446,
      "Ġnp": 2447,
      "my": 2448,
      "Ġprinc": 2449,
      "Ġmaterials": 2450,
      "Ġregard": 2451,
      "ĠCal": 2452,
      "Ġ`": 2453,
      "bon": 2454,
      "Ġcut": 2455,
      "Ġfall": 2456,
      "Ġcolor": 2457,
      "anced": 2458,
      "Ġlot": 2459,
      "Ġpay": 2460,
      "Ġmeasure": 2461,
      "Ġnut": 2462,
      "Ġneeded": 2463,
      "Ġapproach": 2464,
      "Ġsent": 2465,
      "Ġred": 2466,
      "\",Ċ": 2467,
      "init": 2468,
      "_st": 2469,
      "ened": 2470,
      "Ġengine": 2471,
      "ublic": 2472,
      "ĠGe": 2473,
      "Ġaction": 2474,
      "Ġ\"\"\"Ċ": 2475,
      "ĠEm": 2476,
      "ele": 2477,
      "Ġteam": 2478,
      "ĠStud": 2479,
      "Ġidea": 2480,
      "Ġmess": 2481,
      "____": 2482,
      "enc": 2483,
      ".l": 2484,
      "ĠAb": 2485,
      "oose": 2486,
      "Ġlive": 2487,
      "new": 2488,
      "ores": 2489,
      "lex": 2490,
      ".f": 2491,
      "ype": 2492,
      "Ġarticle": 2493,
      "Ġwhole": 2494,
      "ournal": 2495,
      "wh": 2496,
      "}{": 2497,
      "inf": 2498,
      "Ġactually": 2499,
      "ĠAss": 2500,
      "Ġsymptoms": 2501,
      "Ġresponse": 2502,
      "45": 2503,
      "33": 2504,
      "Ġdeep": 2505,
      "oph": 2506,
      "args": 2507,
      "Ġdest": 2508,
      "Ġreduce": 2509,
      "When": 2510,
      "Ġmarket": 2511,
      "Ġquick": 2512,
      "Ġcannot": 2513,
      "Ġnecessary": 2514,
      "Ġann": 2515,
      "Ġdeveloped": 2516,
      "Ġcompon": 2517,
      "Ġcode": 2518,
      "key": 2519,
      "Ġevidence": 2520,
      "aries": 2521,
      "Ġsite": 2522,
      "Ġbreak": 2523,
      "Ġstates": 2524,
      "Ġyet": 2525,
      "Ġtotal": 2526,
      "ĠIntern": 2527,
      "âĢ¦": 2528,
      "ta": 2529,
      "Ġcheck": 2530,
      "eration": 2531,
      "Ġpressure": 2532,
      "Ġsun": 2533,
      "ried": 2534,
      "ĠInt": 2535,
      "Ġprovides": 2536,
      "Ġonline": 2537,
      "Ġcame": 2538,
      "Ġrelated": 2539,
      "Ġentire": 2540,
      "idered": 2541,
      "ivil": 2542,
      "error": 2543,
      "ply": 2544,
      "ĠMan": 2545,
      "Ġpolitical": 2546,
      "esc": 2547,
      "Ġpie": 2548,
      "Ġterms": 2549,
      "uments": 2550,
      "sp": 2551,
      "order": 2552,
      "Ġmedical": 2553,
      "lt": 2554,
      "Ġarr": 2555,
      "Ġanimals": 2556,
      "ĠApp": 2557,
      "Ġparts": 2558,
      "iques": 2559,
      "Ġclimate": 2560,
      "EN": 2561,
      "ĠHealth": 2562,
      "Ġtaken": 2563,
      "Ġexcept": 2564,
      "Ġoffic": 2565,
      "Ġtrue": 2566,
      "ump": 2567,
      "erve": 2568,
      "ey": 2569,
      "go": 2570,
      "!ĊĊ": 2571,
      "ribution": 2572,
      "urch": 2573,
      "equ": 2574,
      "bl": 2575,
      "ges": 2576,
      "Ġincreased": 2577,
      "35": 2578,
      "Ġresearchers": 2579,
      "-l": 2580,
      "ustom": 2581,
      "Ġsomeone": 2582,
      "Ġconsidered": 2583,
      "###": 2584,
      "Ġjob": 2585,
      "acks": 2586,
      "Ġcondition": 2587,
      "ze": 2588,
      "empt": 2589,
      "Ġeffective": 2590,
      "Ġpopular": 2591,
      "Ġnumbers": 2592,
      "aged": 2593,
      "Ġseem": 2594,
      "65": 2595,
      "Ġdat": 2596,
      "Ġclear": 2597,
      "Ġmax": 2598,
      "Ġtowards": 2599,
      "reen": 2600,
      "Ġmanagement": 2601,
      "aced": 2602,
      "oll": 2603,
      "Ġfr": 2604,
      "90": 2605,
      ".\"Ċ": 2606,
      "ulations": 2607,
      "Ġstructure": 2608,
      "Ġwhite": 2609,
      "osis": 2610,
      "eters": 2611,
      "Ġweight": 2612,
      "ches": 2613,
      "umn": 2614,
      "oon": 2615,
      "Ġrights": 2616,
      "Ġarch": 2617,
      "agine": 2618,
      "mber": 2619,
      "ĠDr": 2620,
      "Ġinstead": 2621,
      "Ġhelps": 2622,
      "aling": 2623,
      "Ġitself": 2624,
      "II": 2625,
      "Ġsepar": 2626,
      "Ã©": 2627,
      "iment": 2628,
      "fully": 2629,
      "ender": 2630,
      "Ġstress": 2631,
      "Ġincreasing": 2632,
      "Ġnational": 2633,
      "Ġmeaning": 2634,
      "Ġrecomm": 2635,
      "Ġemot": 2636,
      "Ġmoney": 2637,
      "Ġfive": 2638,
      "ĠAmerica": 2639,
      "eed": 2640,
      "Ġsociety": 2641,
      "Ġimplement": 2642,
      "reng": 2643,
      "Ġmor": 2644,
      "Ġevents": 2645,
      "istance": 2646,
      "Ġservices": 2647,
      "ror": 2648,
      "IS": 2649,
      "Ġability": 2650,
      "astic": 2651,
      "Ġsat": 2652,
      "Ġpoints": 2653,
      "AN": 2654,
      "hing": 2655,
      "Ġmach": 2656,
      "Ġanc": 2657,
      "Ġsense": 2658,
      "'Ċ": 2659,
      "Ġposition": 2660,
      "=\"": 2661,
      "Ġexerc": 2662,
      "itation": 2663,
      "Ġtell": 2664,
      "32": 2665,
      "Ġexplore": 2666,
      "ties": 2667,
      "ming": 2668,
      "Ġshare": 2669,
      "Ġtraining": 2670,
      "Ġlives": 2671,
      "You": 2672,
      "Ġavoid": 2673,
      "Ġsal": 2674,
      "oes": 2675,
      "Ġprevious": 2676,
      "ows": 2677,
      "Ġaspect": 2678,
      "ai": 2679,
      "wor": 2680,
      "sh": 2681,
      "Ġadult": 2682,
      "Ġpriv": 2683,
      "utes": 2684,
      "'re": 2685,
      "ĠWhile": 2686,
      "\".": 2687,
      "Ġmicro": 2688,
      "Ġsometimes": 2689,
      "Ġcontent": 2690,
      "Ġcalcul": 2691,
      "ene": 2692,
      "ĠSu": 2693,
      "erous": 2694,
      "Ġinput": 2695,
      "ops": 2696,
      "Ġensure": 2697,
      "Ġcomputer": 2698,
      "ĠNorth": 2699,
      "Ġla": 2700,
      "imum": 2701,
      "Ġblack": 2702,
      "Ġbehavior": 2703,
      "hib": 2704,
      "Ġtaking": 2705,
      "Ġexpress": 2706,
      "ĠEarth": 2707,
      "Ġcontinue": 2708,
      "istics": 2709,
      "ĠSouth": 2710,
      "like": 2711,
      "light": 2712,
      "Ġeconomic": 2713,
      "imately": 2714,
      "ension": 2715,
      "Ġhealthy": 2716,
      "ĠAfter": 2717,
      "Ġregion": 2718,
      "Ġclos": 2719,
      "Ġ--": 2720,
      "\")Ċ": 2721,
      "Ġremain": 2722,
      "iddle": 2723,
      "Ġallows": 2724,
      "urs": 2725,
      "het": 2726,
      "yl": 2727,
      "Ġreading": 2728,
      "Ġdrug": 2729,
      "oin": 2730,
      "oration": 2731,
      "Con": 2732,
      "^{": 2733,
      "Ġmusic": 2734,
      "Ġthera": 2735,
      "Ġprote": 2736,
      "Ġshows": 2737,
      "-based": 2738,
      "ĠGu": 2739,
      "Ġpositive": 2740,
      "Ġmodels": 2741,
      "(t": 2742,
      "Ġstudent": 2743,
      "ields": 2744,
      "Ġelements": 2745,
      "Ġencou": 2746,
      "ĠAct": 2747,
      "fact": 2748,
      "ĠQu": 2749,
      "Ġcat": 2750,
      "ĠĠĠĠĠĠĠĠĠĠĠĠĠĠĠĠĠĠĠĠĠĠĠĠĠĠĠĠĠĠĠĠ": 2751,
      "Ġweek": 2752,
      "Ġstandard": 2753,
      "ift": 2754,
      "rown": 2755,
      "Ġmatter": 2756,
      "Ġcorrect": 2757,
      "64": 2758,
      "ĠÂ": 2759,
      "Ġtemperature": 2760,
      "pose": 2761,
      "ĠHist": 2762,
      "ister": 2763,
      "bo": 2764,
      "Ġselect": 2765,
      "amin": 2766,
      "Ġbegan": 2767,
      "Ġbal": 2768,
      "197": 2769,
      "Ġregular": 2770,
      "Ġconduct": 2771,
      "Ġwriting": 2772,
      "Ġemerg": 2773,
      "But": 2774,
      "Ġprovided": 2775,
      "ĠNo": 2776,
      "IT": 2777,
      "part": 2778,
      "Ġsqu": 2779,
      "Ġtook": 2780,
      "Ġoutput": 2781,
      "Ġcommunities": 2782,
      "pid": 2783,
      "Ġdraw": 2784,
      "resp": 2785,
      "Ġlink": 2786,
      "Ġhalf": 2787,
      "Ġuser": 2788,
      "Ġproduce": 2789,
      "Ġassess": 2790,
      "aches": 2791,
      "}$": 2792,
      "Ġenvironmental": 2793,
      "Ġmultiple": 2794,
      "Ġunit": 2795,
      "head": 2796,
      "Ġfeed": 2797,
      "Ġclean": 2798,
      "ev": 2799,
      "icles": 2800,
      "Ġtools": 2801,
      "(x": 2802,
      "Ġdemon": 2803,
      "Ġskin": 2804,
      "amed": 2805,
      "Ġoriginal": 2806,
      "Wh": 2807,
      "Ġculture": 2808,
      "aving": 2809,
      "ober": 2810,
      "Ġetc": 2811,
      "uel": 2812,
      "Ġtheory": 2813,
      "itor": 2814,
      "ribute": 2815,
      "Ġmechan": 2816,
      "Ġ$\\": 2817,
      "Ġalmost": 2818,
      "clusion": 2819,
      "ĠMar": 2820,
      "bol": 2821,
      "ription": 2822,
      "Ġgas": 2823,
      "Ġoil": 2824,
      "ike": 2825,
      "hood": 2826,
      "rior": 2827,
      "Pro": 2828,
      "Ġstreng": 2829,
      "imal": 2830,
      "(s": 2831,
      "Ġservice": 2832,
      "itle": 2833,
      "iet": 2834,
      "Ġclaim": 2835,
      "(d": 2836,
      "ground": 2837,
      "Ġdoing": 2838,
      "Ġvide": 2839,
      "itary": 2840,
      "Ġconsist": 2841,
      "ĠAust": 2842,
      "emic": 2843,
      "Ġsuff": 2844,
      "Ġfriends": 2845,
      "aily": 2846,
      "Ġfish": 2847,
      "Ġgreen": 2848,
      "Ġâ": 2849,
      "come": 2850,
      "Ġmonths": 2851,
      "Ġcompet": 2852,
      "thon": 2853,
      "Ġnormal": 2854,
      "ched": 2855,
      "(f": 2856,
      "nov": 2857,
      "Ġharm": 2858,
      "Ġtraditional": 2859,
      "Ġlove": 2860,
      "ĠHis": 2861,
      "Ġparents": 2862,
      "Ġprec": 2863,
      "Ġidentify": 2864,
      "Ġrev": 2865,
      "aff": 2866,
      "Ġbring": 2867,
      "Ġforms": 2868,
      "Ġpage": 2869,
      "Ġpublished": 2870,
      "Ġrecent": 2871,
      "Ġfram": 2872,
      "Ġeasy": 2873,
      "where": 2874,
      "Ġmix": 2875,
      "vere": 2876,
      "Ġheat": 2877,
      "Ġdoesn": 2878,
      "Ġmedic": 2879,
      "True": 2880,
      "Ġdog": 2881,
      "ĠPar": 2882,
      "Ġthing": 2883,
      "Ġbar": 2884,
      "Ġaccept": 2885,
      "Ġ}": 2886,
      "Ġinstance": 2887,
      "ĠMore": 2888,
      "Ġclose": 2889,
      "Ġeval": 2890,
      "irm": 2891,
      "Ġdemonstr": 2892,
      "Ġbenefits": 2893,
      "hel": 2894,
      "ensive": 2895,
      "Ġsimply": 2896,
      "Ġdesigned": 2897,
      "[\"": 2898,
      "dd": 2899,
      "ĠYork": 2900,
      "ging": 2901,
      "ster": 2902,
      "Ġtechniques": 2903,
      "Ġgreater": 2904,
      "Ġhab": 2905,
      "Ġhours": 2906,
      "Ġheav": 2907,
      "Ġuses": 2908,
      "iles": 2909,
      "pri": 2910,
      "fig": 2911,
      "Ġanaly": 2912,
      "back": 2913,
      "ĠMe": 2914,
      "Ġchemical": 2915,
      "cial": 2916,
      "ĠDep": 2917,
      "Ġsix": 2918,
      "Ġcritical": 2919,
      "IC": 2920,
      "Ġbuilt": 2921,
      "Ġanswer": 2922,
      "Ġdeb": 2923,
      "Ġquant": 2924,
      "ĠUs": 2925,
      "Ġface": 2926,
      "ided": 2927,
      "rast": 2928,
      "Ġsoil": 2929,
      "Ġshown": 2930,
      "Ġcapt": 2931,
      "AL": 2932,
      "Ġwritten": 2933,
      "Ġfarm": 2934,
      "Ġec": 2935,
      "Ġcompany": 2936,
      "Ġsex": 2937,
      "Ġattention": 2938,
      "ĠCo": 2939,
      "Ġforce": 2940,
      "One": 2941,
      "isions": 2942,
      "Ġseries": 2943,
      "))": 2944,
      "Ġfat": 2945,
      "Ġperformance": 2946,
      "Ġparam": 2947,
      "Ġstop": 2948,
      "Ġmom": 2949,
      "ĠState": 2950,
      "word": 2951,
      "opt": 2952,
      "Ġsust": 2953,
      "arily": 2954,
      ".org": 2955,
      "ED": 2956,
      "ccording": 2957,
      "rs": 2958,
      "Ġlonger": 2959,
      ".n": 2960,
      "load": 2961,
      "Ġdiet": 2962,
      "ese": 2963,
      "Ġassert": 2964,
      "avor": 2965,
      "Ġcontext": 2966,
      "joy": 2967,
      "dom": 2968,
      "Ġreflect": 2969,
      "Ġsources": 2970,
      "www": 2971,
      "Ġaverage": 2972,
      "ken": 2973,
      "hemat": 2974,
      "Ġfire": 2975,
      "Ġsubst": 2976,
      "Ġcontact": 2977,
      "Ġdiv": 2978,
      "pite": 2979,
      "Ġpict": 2980,
      "Ġang": 2981,
      "Ġdecl": 2982,
      "34": 2983,
      "Ġmagn": 2984,
      "vey": 2985,
      "rim": 2986,
      "artment": 2987,
      "Ġ@": 2988,
      "Ġer": 2989,
      "ĠLet": 2990,
      "Ġsleep": 2991,
      "lease": 2992,
      "Ġchallenges": 2993,
      "rm": 2994,
      "Ġprograms": 2995,
      "Ġparticularly": 2996,
      "Ġslow": 2997,
      "Ġinvolved": 2998,
      "ĠPe": 2999,
      "Ġste": 3000,
      "Ġsurv": 3001,
      "Ġeveryone": 3002,
      "irit": 3003,
      "apan": 3004,
      "vert": 3005,
      "fect": 3006,
      "uth": 3007,
      "Ġindustry": 3008,
      "Ġsolution": 3009,
      "itude": 3010,
      "Ġspread": 3011,
      "Ġri": 3012,
      "amples": 3013,
      "ĠJew": 3014,
      "ners": 3015,
      "Ġbasic": 3016,
      "oor": 3017,
      "inally": 3018,
      "Ġissue": 3019,
      "ounter": 3020,
      "Ġexact": 3021,
      "37": 3022,
      "Im": 3023,
      "?ĊĊ": 3024,
      "Now": 3025,
      "Ġschools": 3026,
      "Ġbelieve": 3027,
      "So": 3028,
      "rix": 3029,
      "ĠResearch": 3030,
      "].": 3031,
      "Ġpsych": 3032,
      "estern": 3033,
      "Ġpack": 3034,
      "Ġled": 3035,
      "AC": 3036,
      "Ġtakes": 3037,
      "Ġoffer": 3038,
      "ĠPer": 3039,
      "ĠCanad": 3040,
      "36": 3041,
      "Ġextrem": 3042,
      "ronic": 3043,
      "ached": 3044,
      "Ġcultural": 3045,
      "Ġcreating": 3046,
      "Ġreview": 3047,
      "Ġfeatures": 3048,
      "curity": 3049,
      "rig": 3050,
      "Ġlo": 3051,
      "Ġoutside": 3052,
      "ST": 3053,
      "Ġcomplete": 3054,
      "minist": 3055,
      "anks": 3056,
      "Ġinteract": 3057,
      "Ġtravel": 3058,
      "ervation": 3059,
      "Ġnetwork": 3060,
      "ĠFl": 3061,
      "Ġaim": 3062,
      "Ġviol": 3063,
      "ĠYour": 3064,
      "Ġfem": 3065,
      "Ġaltern": 3066,
      "Ġstarted": 3067,
      "Ġindepend": 3068,
      "Ġ__": 3069,
      "ĠPres": 3070,
      "Ġinside": 3071,
      "Ġideas": 3072,
      "Ġincludes": 3073,
      "mb": 3074,
      "ĠCons": 3075,
      "Ġcross": 3076,
      "umb": 3077,
      "rate": 3078,
      "Ġcontribut": 3079,
      "ĠBritish": 3080,
      "ricult": 3081,
      "uck": 3082,
      "Ġinj": 3083,
      "value": 3084,
      "omet": 3085,
      "Ġdiagn": 3086,
      "2010": 3087,
      "Ġcommit": 3088,
      "Ġinterp": 3089,
      "Ġmovement": 3090,
      "Ġwild": 3091,
      "38": 3092,
      "Ġcaused": 3093,
      "Ġmedia": 3094,
      "rage": 3095,
      "oved": 3096,
      "Ġextra": 3097,
      "Ġappl": 3098,
      "Ġeth": 3099,
      "ography": 3100,
      "Ġpredict": 3101,
      "ĠCar": 3102,
      "Ġcustom": 3103,
      "Ġlines": 3104,
      "ls": 3105,
      "ged": 3106,
      "ests": 3107,
      "roup": 3108,
      "rought": 3109,
      "Ġsound": 3110,
      "vant": 3111,
      "Ġexperiences": 3112,
      "Ġaware": 3113,
      "Ġwid": 3114,
      "Ġbase": 3115,
      "Ġstories": 3116,
      "odes": 3117,
      "Ġcru": 3118,
      "Ġcompan": 3119,
      "Ġtable": 3120,
      "atively": 3121,
      "Ġdifference": 3122,
      "Ġpractices": 3123,
      "ait": 3124,
      "Ġestim": 3125,
      "pper": 3126,
      "Ġgraph": 3127,
      "ura": 3128,
      "Ġbehind": 3129,
      "Ġwrite": 3130,
      "Ġscientists": 3131,
      "Ġfunctions": 3132,
      "Ġshape": 3133,
      "Ġinsp": 3134,
      "Ġago": 3135,
      "ades": 3136,
      "Ġthreat": 3137,
      "issions": 3138,
      "Ġprogress": 3139,
      "Ġdocument": 3140,
      "Ġenjoy": 3141,
      "Ġdeveloping": 3142,
      "yp": 3143,
      "Ġsequ": 3144,
      "Ġlooking": 3145,
      "Ġaud": 3146,
      "Ġcauses": 3147,
      "orpor": 3148,
      "75": 3149,
      "Ġappropri": 3150,
      "ynam": 3151,
      "Ġones": 3152,
      "ero": 3153,
      "Ġwebs": 3154,
      "Ġbooks": 3155,
      "Ġfru": 3156,
      "cles": 3157,
      "Ġfinanc": 3158,
      "ucle": 3159,
      "Ġleading": 3160,
      "RE": 3161,
      "rial": 3162,
      "ĠNot": 3163,
      "Ġearth": 3164,
      "2012": 3165,
      "ĠNe": 3166,
      "Ġdou": 3167,
      "ban": 3168,
      "Ġattempt": 3169,
      "izations": 3170,
      "ufact": 3171,
      "Ġsurround": 3172,
      "39": 3173,
      "Ġlength": 3174,
      "ĠComp": 3175,
      "yond": 3176,
      "Ġsmo": 3177,
      "duc": 3178,
      "Ġinvestig": 3179,
      "Ġgrowing": 3180,
      "Ġder": 3181,
      "Ġlate": 3182,
      "Ġbeaut": 3183,
      "Ġcarbon": 3184,
      "}\\": 3185,
      "ĠJapan": 3186,
      "Ġgame": 3187,
      "Ġobtain": 3188,
      "oles": 3189,
      "Ġgetting": 3190,
      "wise": 3191,
      "Ġmental": 3192,
      "Ġbroad": 3193,
      "ĠSchool": 3194,
      "On": 3195,
      "path": 3196,
      "ĠReg": 3197,
      "date": 3198,
      "gar": 3199,
      "Ġpolicy": 3200,
      "Ġsection": 3201,
      "Ġenh": 3202,
      "rror": 3203,
      "48": 3204,
      "Ġir": 3205,
      "erate": 3206,
      "ologies": 3207,
      "left": 3208,
      "Ġsearch": 3209,
      "lege": 3210,
      "Ġcompared": 3211,
      "resh": 3212,
      "overy": 3213,
      "Ġdaily": 3214,
      "Ġlands": 3215,
      "Ġtree": 3216,
      "ederal": 3217,
      "Ġsafety": 3218,
      "rated": 3219,
      "Ġprimary": 3220,
      "Ġquite": 3221,
      "Ġtax": 3222,
      "ĠSim": 3223,
      "me": 3224,
      "Ġbit": 3225,
      "ĠScience": 3226,
      "rench": 3227,
      "\"]": 3228,
      "tings": 3229,
      "Ġcommunication": 3230,
      "uous": 3231,
      "Ġadapt": 3232,
      "Ġreve": 3233,
      "Ġdamage": 3234,
      "iency": 3235,
      "Ġhyd": 3236,
      "Ġachieve": 3237,
      "Ġprep": 3238,
      "Ġvariety": 3239,
      "aly": 3240,
      "2011": 3241,
      "Ġrout": 3242,
      "Ġcamp": 3243,
      "haps": 3244,
      ".e": 3245,
      "idge": 3246,
      "requ": 3247,
      "Ġadded": 3248,
      "Ġexpect": 3249,
      "Ġox": 3250,
      "Ġhumans": 3251,
      "uff": 3252,
      "Ġbound": 3253,
      "Ġyourself": 3254,
      "Ġearl": 3255,
      "Ġhistorical": 3256,
      "erson": 3257,
      "term": 3258,
      "room": 3259,
      "ula": 3260,
      "ĠIndia": 3261,
      "Ġful": 3262,
      "ĠĠĠĠĠĠĠĠĠĠĠĠĠĠĠĠĠĠĠĠĠĠĠ": 3263,
      "ĠMany": 3264,
      "print": 3265,
      "uild": 3266,
      "(n": 3267,
      "Ġcou": 3268,
      "Ġelectric": 3269,
      "ha": 3270,
      ")čĊ": 3271,
      "Ġeasily": 3272,
      "Ġrequires": 3273,
      "Ġleaders": 3274,
      "nown": 3275,
      "Ġstay": 3276,
      "Ġvisit": 3277,
      "Ġlarger": 3278,
      "abet": 3279,
      "Ġremember": 3280,
      "Ġsafe": 3281,
      "Ġthus": 3282,
      "ius": 3283,
      "Ġwond": 3284,
      "illi": 3285,
      "31": 3286,
      "ĠPart": 3287,
      "ceed": 3288,
      "Ġwarm": 3289,
      "By": 3290,
      "Ġhost": 3291,
      "ibrary": 3292,
      "inks": 3293,
      "2013": 3294,
      "ession": 3295,
      "Ġprobably": 3296,
      "porary": 3297,
      "ĠInstit": 3298,
      "Ġlack": 3299,
      "Ġdim": 3300,
      "ament": 3301,
      "Ġadditional": 3302,
      "rep": 3303,
      "Ġdetermine": 3304,
      "Ġimportance": 3305,
      "ipl": 3306,
      "Ġsustain": 3307,
      "cret": 3308,
      "Ġprocesses": 3309,
      "Ġthinking": 3310,
      "Ġsect": 3311,
      "Ġsoftware": 3312,
      "Ġimages": 3313,
      "bit": 3314,
      "Ġbacter": 3315,
      "ulate": 3316,
      "Ġfit": 3317,
      "Ġpoll": 3318,
      "Ġtalk": 3319,
      "ĠMin": 3320,
      "Ġeat": 3321,
      "ET": 3322,
      "Ġcolon": 3323,
      "Ġproduced": 3324,
      "Ġforest": 3325,
      ".app": 3326,
      "None": 3327,
      "Ġincluded": 3328,
      "Ġhor": 3329,
      "Ġreported": 3330,
      "-w": 3331,
      "inct": 3332,
      "igen": 3333,
      "isms": 3334,
      "lim": 3335,
      "izes": 3336,
      "Ġgenerally": 3337,
      "amb": 3338,
      "Ġcit": 3339,
      "Ġadj": 3340,
      "ĠDes": 3341,
      "Ġcommand": 3342,
      "ĠKing": 3343,
      "text": 3344,
      "Ġdefin": 3345,
      "Ġquickly": 3346,
      "ief": 3347,
      "fort": 3348,
      "gor": 3349,
      "Ġpoor": 3350,
      "Ġanimal": 3351,
      "off": 3352,
      "vention": 3353,
      "uge": 3354,
      "itch": 3355,
      "_data": 3356,
      "Ġinstall": 3357,
      "test": 3358,
      "Ġefforts": 3359,
      "Ġkids": 3360,
      "Ġpatient": 3361,
      "Ġinstit": 3362,
      "Ġsil": 3363,
      "Ġpropos": 3364,
      "ana": 3365,
      "Ġconcent": 3366,
      "Ġbecomes": 3367,
      "iples": 3368,
      "Ġeverything": 3369,
      "ception": 3370,
      ")ĊĊĊ": 3371,
      "Ġversion": 3372,
      "Ġexpected": 3373,
      "Ġwood": 3374,
      "Ġcover": 3375,
      "fficient": 3376,
      "44": 3377,
      "oe": 3378,
      "inating": 3379,
      "Ġtown": 3380,
      "Ġlif": 3381,
      "Ġdecision": 3382,
      "ĠJan": 3383,
      "ĠPol": 3384,
      "Ġvisual": 3385,
      "na": 3386,
      "Ġapplications": 3387,
      "55": 3388,
      "Ġoverall": 3389,
      "Ġactive": 3390,
      "ĠRet": 3391,
      "Ġfoods": 3392,
      "ilos": 3393,
      "-h": 3394,
      "Ġdirectly": 3395,
      "Ġscientific": 3396,
      "asons": 3397,
      "Ġcool": 3398,
      "heck": 3399,
      "=True": 3400,
      "Ġbeyond": 3401,
      "oud": 3402,
      "Ġapplication": 3403,
      "Ġinternational": 3404,
      "ellow": 3405,
      "Ġobjects": 3406,
      "ĠUnder": 3407,
      "ĠChina": 3408,
      "-st": 3409,
      "Ġstru": 3410,
      "mission": 3411,
      "Ġfeet": 3412,
      "Ġnight": 3413,
      "ĠArt": 3414,
      "inate": 3415,
      ".C": 3416,
      "unction": 3417,
      "Ġprior": 3418,
      "ancy": 3419,
      "Ġteachers": 3420,
      "Error": 3421,
      "lo": 3422,
      "Ġload": 3423,
      "hens": 3424,
      "param": 3425,
      "Ġtherefore": 3426,
      "ĠCO": 3427,
      "Ġpatterns": 3428,
      "standing": 3429,
      "Ġep": 3430,
      "ino": 3431,
      "Ġserious": 3432,
      "ĠEd": 3433,
      "Ġfamilies": 3434,
      "elt": 3435,
      "chol": 3436,
      "Ġseems": 3437,
      ".h": 3438,
      "ecause": 3439,
      "Ġcivil": 3440,
      "more": 3441,
      "Ġmanufact": 3442,
      "format": 3443,
      "ĠAg": 3444,
      "2009": 3445,
      "Ġvideo": 3446,
      "Ġuseful": 3447,
      "Ġcontains": 3448,
      "Ġinnov": 3449,
      "Ġdecre": 3450,
      "Ġveget": 3451,
      "'ll": 3452,
      "2008": 3453,
      "ĠAustral": 3454,
      "Ġconstant": 3455,
      "Ġattack": 3456,
      "Ġwall": 3457,
      "with": 3458,
      "Ġtransport": 3459,
      "Ġhttp": 3460,
      "Ġspeed": 3461,
      "Ġshap": 3462,
      "Ġestablished": 3463,
      "ĠDo": 3464,
      "lands": 3465,
      "inst": 3466,
      "osing": 3467,
      "Ġguid": 3468,
      "Ġproced": 3469,
      "iate": 3470,
      "ĠFrom": 3471,
      "ĠAug": 3472,
      "Ġsecurity": 3473,
      "Ġgot": 3474,
      "Ġsteps": 3475,
      "osition": 3476,
      "IV": 3477,
      "Ġwhose": 3478,
      "Ġbur": 3479,
      "mar": 3480,
      "Ġdigital": 3481,
      "Ġinfluence": 3482,
      "ĠVal": 3483,
      "Ġrefer": 3484,
      "Ġancient": 3485,
      "oday": 3486,
      "alking": 3487,
      "-g": 3488,
      "========": 3489,
      "ighb": 3490,
      "gorith": 3491,
      "Ġthous": 3492,
      "Ġspeak": 3493,
      "ĠMy": 3494,
      "Ġnegative": 3495,
      "Ġopportunities": 3496,
      "ĠRep": 3497,
      "ĠEuropean": 3498,
      "Ġlimit": 3499,
      "Ġgain": 3500,
      "ensity": 3501,
      "Ġsn": 3502,
      "Ġblock": 3503,
      "Ġrand": 3504,
      "Ġthird": 3505,
      "Ġsoon": 3506,
      "Ġimmedi": 3507,
      "Ġstrategies": 3508,
      "And": 3509,
      "Ġmemory": 3510,
      "Ġproperty": 3511,
      "Ġexamples": 3512,
      "ying": 3513,
      "Ġcomplet": 3514,
      "assert": 3515,
      "bre": 3516,
      "Ġax": 3517,
      "Ġremains": 3518,
      "ttps": 3519,
      "lation": 3520,
      "ille": 3521,
      "itable": 3522,
      "Res": 3523,
      ".st": 3524,
      "Ġdevice": 3525,
      "iar": 3526,
      "Ġisn": 3527,
      "ml": 3528,
      "Ġcateg": 3529,
      "Ġcard": 3530,
      "Ġcompanies": 3531,
      "Ġfinal": 3532,
      "Ġequal": 3533,
      "rong": 3534,
      "odies": 3535,
      "arv": 3536,
      "Ġvirus": 3537,
      "Ġinform": 3538,
      "ĠTrue": 3539,
      "Ġos": 3540,
      "Ġfinancial": 3541,
      "rie": 3542,
      "Ġmother": 3543,
      "Ġautom": 3544,
      "Ġmention": 3545,
      "Ġult": 3546,
      "Ġsea": 3547,
      "uries": 3548,
      "used": 3549,
      "ĠGl": 3550,
      "enge": 3551,
      "Ġtrying": 3552,
      "Ġtransform": 3553,
      "Cl": 3554,
      "onom": 3555,
      "EC": 3556,
      "Ġdang": 3557,
      "istry": 3558,
      "Ġfoot": 3559,
      "ĠFirst": 3560,
      "ĠJu": 3561,
      "Ġvia": 3562,
      "Ġtend": 3563,
      "umber": 3564,
      "itect": 3565,
      "Ġrules": 3566,
      "Ġraise": 3567,
      "ĠRuss": 3568,
      "inated": 3569,
      "Ġelement": 3570,
      "Ġdistribution": 3571,
      "Ġmole": 3572,
      "_path": 3573,
      "Ġbad": 3574,
      "Ġinitial": 3575,
      "Ġfast": 3576,
      "Ġcentral": 3577,
      ".D": 3578,
      "met": 3579,
      "Ġheld": 3580,
      "ĠCount": 3581,
      "Ġhands": 3582,
      "Ġund": 3583,
      "Ġfront": 3584,
      "uable": 3585,
      "Ġeye": 3586,
      "Ġappropriate": 3587,
      "illing": 3588,
      "Ġtrees": 3589,
      "Ġrates": 3590,
      "Ġfix": 3591,
      "uk": 3592,
      "Ġproviding": 3593,
      "_g": 3594,
      "ĠSm": 3595,
      "Ġroad": 3596,
      "Ġmilitary": 3597,
      "Ġagree": 3598,
      "Ġnation": 3599,
      "Ġpromot": 3600,
      "Ġreligious": 3601,
      "ĠEduc": 3602,
      "exp": 3603,
      "Ġdevices": 3604,
      "Un": 3605,
      "Ġcomponents": 3606,
      "Ġpowerful": 3607,
      "Ġsold": 3608,
      "ĠHere": 3609,
      "ocks": 3610,
      "ĠThen": 3611,
      "Ġestablish": 3612,
      "-in": 3613,
      "Ġsymbol": 3614,
      "Ġsituation": 3615,
      "Ġcred": 3616,
      "Ġstri": 3617,
      "irection": 3618,
      "ĠFrench": 3619,
      "ĠAc": 3620,
      "Ġwent": 3621,
      "Ġnamed": 3622,
      "uration": 3623,
      "Ġsus": 3624,
      "Ġlimited": 3625,
      "Ġgard": 3626,
      "rap": 3627,
      "Ġspirit": 3628,
      "iring": 3629,
      "Ġapprox": 3630,
      "Com": 3631,
      "Ġcapac": 3632,
      "Ġminutes": 3633,
      "At": 3634,
      "Ġhighly": 3635,
      "Ġreact": 3636,
      "Ġexercise": 3637,
      "Ġproperties": 3638,
      "Ġprojects": 3639,
      "Ġdepend": 3640,
      "ĠNow": 3641,
      "Ġoptions": 3642,
      "Ġmonth": 3643,
      "Ġtiss": 3644,
      "ĠOther": 3645,
      ".append": 3646,
      "Ġconstruct": 3647,
      "Ġdiseases": 3648,
      "Ġrandom": 3649,
      "col": 3650,
      "66": 3651,
      "ĠAlthough": 3652,
      "Ġbab": 3653,
      "ding": 3654,
      "encies": 3655,
      "ĠMon": 3656,
      "uary": 3657,
      "ĠSystem": 3658,
      "Ġperspect": 3659,
      "ĠIndian": 3660,
      "osure": 3661,
      "cean": 3662,
      "ashing": 3663,
      "Ġgoal": 3664,
      "ĠTra": 3665,
      "Ġexec": 3666,
      "Ġlaws": 3667,
      "Ġvacc": 3668,
      "Ġrob": 3669,
      "med": 3670,
      "Ġconflic": 3671,
      "Ġconvers": 3672,
      "Ġdry": 3673,
      "ref": 3674,
      "Ġlabor": 3675,
      "Ġalthough": 3676,
      ".w": 3677,
      "Ġreach": 3678,
      "47": 3679,
      "orders": 3680,
      "Ġcollab": 3681,
      "ĠJust": 3682,
      ".set": 3683,
      "Ġroot": 3684,
      "attle": 3685,
      "Ġplaces": 3686,
      "wo": 3687,
      "AM": 3688,
      "ĠOct": 3689,
      "Ġgives": 3690,
      "-S": 3691,
      "Ġsolar": 3692,
      "ran": 3693,
      "Ġtypically": 3694,
      "ĠMost": 3695,
      "plit": 3696,
      "ĠII": 3697,
      "Ġteaching": 3698,
      "year": 3699,
      "Ġresponsible": 3700,
      "uman": 3701,
      "array": 3702,
      "AP": 3703,
      "Ġacid": 3704,
      "Ġdark": 3705,
      "0000": 3706,
      "Ġwide": 3707,
      "Ġdemand": 3708,
      "Ġperfect": 3709,
      "Ġpurpose": 3710,
      "Ġchoose": 3711,
      "Ġdistance": 3712,
      "Ġden": 3713,
      "Ġbelief": 3714,
      "phas": 3715,
      "Ġcenter": 3716,
      "Ġusers": 3717,
      "Ġtests": 3718,
      "ĠTrans": 3719,
      "EM": 3720,
      "iter": 3721,
      "ĠJes": 3722,
      "-to": 3723,
      "Ġapprec": 3724,
      "Ġfriend": 3725,
      "Ġclin": 3726,
      "RO": 3727,
      "Ġshall": 3728,
      "Ġpan": 3729,
      "Ġmount": 3730,
      "Ġnames": 3731,
      "Ġhot": 3732,
      "ternal": 3733,
      "undred": 3734,
      "Ġmoment": 3735,
      "Ġmis": 3736,
      "ager": 3737,
      "Ġdefined": 3738,
      "Ġasked": 3739,
      "ports": 3740,
      "Ġaspects": 3741,
      "Ġcele": 3742,
      "ulated": 3743,
      "ĠDis": 3744,
      "Ġanything": 3745,
      "Re": 3746,
      "iforn": 3747,
      "He": 3748,
      "Ġbeginning": 3749,
      "01": 3750,
      "ĠAfrican": 3751,
      "2007": 3752,
      "eks": 3753,
      "comp": 3754,
      "Ġstatus": 3755,
      "Ġcosts": 3756,
      "Ġexplain": 3757,
      "ocol": 3758,
      "ky": 3759,
      "Ġprop": 3760,
      "Ġprotein": 3761,
      "atform": 3762,
      "69": 3763,
      "Ġsupply": 3764,
      "ellig": 3765,
      "ĠCenter": 3766,
      "Ġdisplay": 3767,
      "ĠThrough": 3768,
      ".b": 3769,
      ".assert": 3770,
      "()ĊĊ": 3771,
      "ags": 3772,
      "Ġlocation": 3773,
      "(m": 3774,
      "Ġlost": 3775,
      "Ġsevere": 3776,
      "iers": 3777,
      "Ar": 3778,
      "ifically": 3779,
      "ĠInst": 3780,
      "ĠTechn": 3781,
      "2015": 3782,
      "âĢĻll": 3783,
      "Ġscale": 3784,
      "ĠApr": 3785,
      "Ġdescribed": 3786,
      "rote": 3787,
      "airs": 3788,
      "67": 3789,
      "âĢĻve": 3790,
      "Ġweb": 3791,
      "urg": 3792,
      "_to": 3793,
      "Ġcapital": 3794,
      "Ġinteresting": 3795,
      "Ġroom": 3796,
      "Ġmessage": 3797,
      "68": 3798,
      "rogen": 3799,
      "ech": 3800,
      "och": 3801,
      "Ġsolutions": 3802,
      "Ġcam": 3803,
      "ĠChristian": 3804,
      "useum": 3805,
      "Ġrapid": 3806,
      "Ġjud": 3807,
      "ĠMat": 3808,
      "Ġnucle": 3809,
      "Ġassum": 3810,
      "ĠGree": 3811,
      "Ġfactor": 3812,
      "Ġsuccessful": 3813,
      "gram": 3814,
      "Ġvit": 3815,
      "49": 3816,
      ");": 3817,
      "iful": 3818,
      "Ġofficial": 3819,
      "Ġprivate": 3820,
      "Ġdifferences": 3821,
      "ION": 3822,
      "Ġbrought": 3823,
      "Ġvaluable": 3824,
      "ipment": 3825,
      "Ġadvant": 3826,
      "Ġsort": 3827,
      "Ġcarry": 3828,
      "ĠMus": 3829,
      "asks": 3830,
      "Ġdate": 3831,
      "Ġdynam": 3832,
      "Ġoffers": 3833,
      "ĠOur": 3834,
      "Ġrich": 3835,
      "roduction": 3836,
      "Ġprotection": 3837,
      "Ġrelationships": 3838,
      "Ġdefault": 3839,
      "2016": 3840,
      "known": 3841,
      "cape": 3842,
      "Ġtesting": 3843,
      "ifornia": 3844,
      "ham": 3845,
      "Ġreceived": 3846,
      "Ġnews": 3847,
      "Ġneighb": 3848,
      "uit": 3849,
      "ĠAfrica": 3850,
      "Ġfight": 3851,
      "Ġsmaller": 3852,
      "ĠCour": 3853,
      "ĠPre": 3854,
      "2017": 3855,
      "Ġjour": 3856,
      "oming": 3857,
      "Ġtim": 3858,
      "see": 3859,
      "que": 3860,
      "Ġconsequ": 3861,
      "Ġbreat": 3862,
      "ĠInstitute": 3863,
      "Ġcopy": 3864,
      "Ġfavor": 3865,
      "urb": 3866,
      "Ġbehavi": 3867,
      "Ġforces": 3868,
      "sect": 3869,
      "2014": 3870,
      "unch": 3871,
      "ĠInternational": 3872,
      "Ġeyes": 3873,
      "Ġrespond": 3874,
      "Ġstructures": 3875,
      "Ġrequest": 3876,
      "Ġsaw": 3877,
      "AD": 3878,
      "Ġcrucial": 3879,
      "Ġseason": 3880,
      "ĠHistory": 3881,
      "Ġfields": 3882,
      "Ġcontroll": 3883,
      "Ġmachine": 3884,
      "Ġadults": 3885,
      "Ġcommunic": 3886,
      "ĠHer": 3887,
      "Ġsample": 3888,
      "ocal": 3889,
      "-term": 3890,
      "Ġincorpor": 3891,
      "ĠWest": 3892,
      "Ġbox": 3893,
      "Ġagricult": 3894,
      "Ġveh": 3895,
      "Ġsec": 3896,
      "Ġfair": 3897,
      "tes": 3898,
      "ulum": 3899,
      "Ġlearned": 3900,
      "ĠAnt": 3901,
      "abetes": 3902,
      "Ġlegal": 3903,
      "_list": 3904,
      "da": 3905,
      "iot": 3906,
      "Ġactions": 3907,
      "Ġbirth": 3908,
      "Ġsites": 3909,
      "Ġadminist": 3910,
      "respond": 3911,
      "Ġtask": 3912,
      "Ġevalu": 3913,
      "Ġalgorith": 3914,
      "Ġcitiz": 3915,
      "Ġvalid": 3916,
      "Ġleaves": 3917,
      "_h": 3918,
      "Ġstrugg": 3919,
      "Ġlen": 3920,
      "erences": 3921,
      "Ġforward": 3922,
      "Ġstage": 3923,
      "Ġbott": 3924,
      "Ġaccom": 3925,
      "cks": 3926,
      "ĠDepartment": 3927,
      "rition": 3928,
      "Ġfa": 3929,
      "}Ċ": 3930,
      "Ġrule": 3931,
      "Ġinvolves": 3932,
      "gn": 3933,
      "Ġfeature": 3934,
      "__(": 3935,
      "Ġhabit": 3936,
      "_size": 3937,
      "Ġrat": 3938,
      "Ġrepl": 3939,
      "Ġefficient": 3940,
      "Ġmap": 3941,
      "Ġhyp": 3942,
      "Ġerror": 3943,
      ".)": 3944,
      "abilities": 3945,
      "Ġearlier": 3946,
      "ĠGerman": 3947,
      "iny": 3948,
      "Ġlocated": 3949,
      "Ġworkers": 3950,
      "Ġnav": 3951,
      ".add": 3952,
      "emporary": 3953,
      "Ġinfection": 3954,
      "point": 3955,
      "ios": 3956,
      "Ġbasis": 3957,
      "2000": 3958,
      "Ġmeasures": 3959,
      "Ġillust": 3960,
      "ĠLear": 3961,
      "With": 3962,
      "Ġvirt": 3963,
      "edia": 3964,
      "],Ċ": 3965,
      "]ĊĊ": 3966,
      "Ġconfig": 3967,
      "Ġtrade": 3968,
      "Ġmill": 3969,
      "rees": 3970,
      "ĠRem": 3971,
      "Ġdidn": 3972,
      "Sc": 3973,
      "Ġdiscovered": 3974,
      "book": 3975,
      "Ġfig": 3976,
      "Ġwebsite": 3977,
      "Ġnothing": 3978,
      "Ġindex": 3979,
      "Ġassign": 3980,
      "])Ċ": 3981,
      "ĠDevelop": 3982,
      "ervice": 3983,
      "Ġmiss": 3984,
      "idents": 3985,
      "hest": 3986,
      "Ġappe": 3987,
      "ĠCalifornia": 3988,
      "Ġsitu": 3989,
      "Ġsignificantly": 3990,
      "ĠChild": 3991,
      "ĠOver": 3992,
      "works": 3993,
      "ĠEach": 3994,
      "'ve": 3995,
      "Ġhundred": 3996,
      "acters": 3997,
      "estic": 3998,
      "aid": 3999,
      "config": 4000,
      "Ġexactly": 4001,
      "file": 4002,
      "outhern": 4003,
      "ĠMarch": 4004,
      "Ġdoctor": 4005,
      "Ġmathemat": 4006,
      "Ġbalance": 4007,
      "EL": 4008,
      "atus": 4009,
      "Ġball": 4010,
      "Ġdeal": 4011,
      "Ġstra": 4012,
      "ĠSw": 4013,
      "udd": 4014,
      "ought": 4015,
      "Ġfib": 4016,
      "Ġitems": 4017,
      "Ġconstruction": 4018,
      "################": 4019,
      "Ġconstit": 4020,
      "Ġcontinued": 4021,
      "oice": 4022,
      "cil": 4023,
      "Ġwaste": 4024,
      "Ġdetails": 4025,
      "inese": 4026,
      "index": 4027,
      "_type": 4028,
      "ĠEl": 4029,
      "ogle": 4030,
      "Ġweeks": 4031,
      "change": 4032,
      "Ġbra": 4033,
      "aught": 4034,
      "Ġnovel": 4035,
      "Ġmag": 4036,
      "Ġfasc": 4037,
      "Ġcollection": 4038,
      "Ġelectr": 4039,
      "Ġprofessional": 4040,
      "ĠJournal": 4041,
      "Ġapplied": 4042,
      "raction": 4043,
      "rest": 4044,
      "Ġice": 4045,
      "ĠCommun": 4046,
      "')": 4047,
      "mat": 4048,
      "ĠJesus": 4049,
      "Ġspect": 4050,
      "ĠĊ": 4051,
      "zz": 4052,
      "Ġcolumn": 4053,
      "usion": 4054,
      "ĠEven": 4055,
      "Ġstre": 4056,
      "user": 4057,
      "78": 4058,
      "Ġapply": 4059,
      "ingu": 4060,
      "Ġgoes": 4061,
      "mosp": 4062,
      "Ġtherapy": 4063,
      "Ġdegree": 4064,
      "Ġexisting": 4065,
      "Ġfollowed": 4066,
      "Ġbenefit": 4067,
      "IL": 4068,
      "Ġtold": 4069,
      "Ġinstr": 4070,
      "Ġwon": 4071,
      "Ġchapter": 4072,
      "Ġsave": 4073,
      "Ġpy": 4074,
      "Ġfear": 4075,
      "Ġallowed": 4076,
      "Ġhope": 4077,
      "Ġlargest": 4078,
      "UT": 4079,
      "ĠPress": 4080,
      "Ġhon": 4081,
      "gy": 4082,
      "05": 4083,
      "```": 4084,
      "Ġdiverse": 4085,
      "log": 4086,
      "ĠJune": 4087,
      "orage": 4088,
      "Ġing": 4089,
      "arian": 4090,
      "ĠIS": 4091,
      "efore": 4092,
      "coh": 4093,
      "ĠFalse": 4094,
      "Ġhimself": 4095,
      "Ġcoll": 4096,
      "Ġreasons": 4097,
      "42": 4098,
      "rab": 4099,
      "ĠDav": 4100,
      "Ġ)": 4101,
      "2006": 4102,
      "Ġburn": 4103,
      "These": 4104,
      "Ġreceive": 4105,
      "Ġpiece": 4106,
      "95": 4107,
      "Ġshared": 4108,
      "Ġmiddle": 4109,
      "Ġexpand": 4110,
      "Ġconnection": 4111,
      "Ġregarding": 4112,
      "Ġfiles": 4113,
      "Ġfost": 4114,
      "Ġvict": 4115,
      "Ġnearly": 4116,
      "ony": 4117,
      "Ġgradu": 4118,
      "Ġteacher": 4119,
      "ĠUse": 4120,
      "Ġmut": 4121,
      "Ġemphas": 4122,
      "Ġphilos": 4123,
      "Ġemp": 4124,
      "Ġmid": 4125,
      "lement": 4126,
      "Ġfigure": 4127,
      "500": 4128,
      "Ġdetect": 4129,
      "ogen": 4130,
      "Ġreduced": 4131,
      "Ġdirection": 4132,
      "orthern": 4133,
      "Ġexpression": 4134,
      "iences": 4135,
      "izer": 4136,
      "hors": 4137,
      "Ġnote": 4138,
      "Ġrunning": 4139,
      "Ġprinciples": 4140,
      "Ġbul": 4141,
      "Ġten": 4142,
      "ocr": 4143,
      "Ġresource": 4144,
      "ĠRed": 4145,
      "mp": 4146,
      "Ġmig": 4147,
      "([": 4148,
      "rid": 4149,
      "ĠSept": 4150,
      "Ġfuel": 4151,
      "tical": 4152,
      "Ġplanet": 4153,
      "Ġpow": 4154,
      "aled": 4155,
      "Ġegg": 4156,
      "Ġliterature": 4157,
      "Ġencourag": 4158,
      "alle": 4159,
      "Ġcoord": 4160,
      "ĠAmericans": 4161,
      "atur": 4162,
      "Ġutil": 4163,
      "Ġwrote": 4164,
      "rael": 4165,
      "Ġteach": 4166,
      "Ġrecently": 4167,
      "Ġarchitect": 4168,
      "arb": 4169,
      "Ġequipment": 4170,
      "ĠAugust": 4171,
      "ĠCanada": 4172,
      "xi": 4173,
      "ĠInter": 4174,
      "ously": 4175,
      "Ġjourney": 4176,
      "Ġborn": 4177,
      "Ġtrust": 4178,
      "Ġdead": 4179,
      "Ġrare": 4180,
      "Ġwrong": 4181,
      "Ġmath": 4182,
      "oly": 4183,
      "era": 4184,
      "Ġchallenge": 4185,
      "ibly": 4186,
      "Ġcorrespond": 4187,
      "Ġcontribute": 4188,
      "ĠFeb": 4189,
      "Is": 4190,
      "uing": 4191,
      "ĠRec": 4192,
      "ĠSince": 4193,
      "Ġhous": 4194,
      "Ġcompletely": 4195,
      "Ġ{Ċ": 4196,
      "Ġnorth": 4197,
      "rehens": 4198,
      "pan": 4199,
      "Ġopportunity": 4200,
      "ffect": 4201,
      "Ġaffected": 4202,
      "oses": 4203,
      "Ġorganization": 4204,
      "ĠRiver": 4205,
      "Ġeating": 4206,
      "Ġcompar": 4207,
      "ica": 4208,
      "Ġscen": 4209,
      "Ġprice": 4210,
      "rows": 4211,
      "Ġolder": 4212,
      "urrent": 4213,
      "Ġrepe": 4214,
      "ĠAccording": 4215,
      "Ġorganizations": 4216,
      "run": 4217,
      "ĠMc": 4218,
      "Ġswe": 4219,
      "Ġ->": 4220,
      "ĠDuring": 4221,
      "Ġexposure": 4222,
      "Ġfather": 4223,
      "ĠGreat": 4224,
      "Step": 4225,
      "Ġrot": 4226,
      "Ġaccur": 4227,
      "Ġidentity": 4228,
      "ĠJuly": 4229,
      "Ġcharacters": 4230,
      "2005": 4231,
      "_file": 4232,
      "Ġlayer": 4233,
      "Ġleave": 4234,
      "itis": 4235,
      "Ġacqu": 4236,
      "âĪ": 4237,
      "Ġweather": 4238,
      "():Ċ": 4239,
      "ĠTest": 4240,
      "195": 4241,
      "urt": 4242,
      "Ġlat": 4243,
      "aul": 4244,
      "OT": 4245,
      "Ġcry": 4246,
      "Ġstandards": 4247,
      "ĠEngland": 4248,
      "ĠOf": 4249,
      "Ġalone": 4250,
      "Ġbacteria": 4251,
      "Ġserve": 4252,
      "ĠDay": 4253,
      "Ġmember": 4254,
      "edom": 4255,
      "False": 4256,
      "While": 4257,
      "ormal": 4258,
      "ĠApril": 4259,
      "info": 4260,
      "bb": 4261,
      "Ġconcepts": 4262,
      "Ġsetting": 4263,
      "Ġstyle": 4264,
      "Ġchoice": 4265,
      "Ġrow": 4266,
      "Ġsugar": 4267,
      "Let": 4268,
      "care": 4269,
      "ĠĠĠĠĠĠ": 4270,
      "ĠTheir": 4271,
      "Ġdiscover": 4272,
      "Ġrecommend": 4273,
      "ama": 4274,
      "Ġcoast": 4275,
      "Ġmoving": 4276,
      "ĠAssoci": 4277,
      "Ġperhaps": 4278,
      "Ġenter": 4279,
      ".j": 4280,
      "Ġexploring": 4281,
      "...Ċ": 4282,
      "Ġcurrently": 4283,
      "Ġevolution": 4284,
      "Ġsummer": 4285,
      "46": 4286,
      "ĠAre": 4287,
      "Ġthr": 4288,
      "Ġfully": 4289,
      "exic": 4290,
      "Ġcore": 4291,
      "Ġoccurs": 4292,
      "Ġinfect": 4293,
      "ros": 4294,
      "Ġbackground": 4295,
      "Ġmiles": 4296,
      "ĠRead": 4297,
      "Ġrise": 4298,
      "Ġacad": 4299,
      "Ġcold": 4300,
      "ename": 4301,
      "comes": 4302,
      "ashington": 4303,
      "mitted": 4304,
      "ĠSoci": 4305,
      "ares": 4306,
      "ache": 4307,
      "Ġunc": 4308,
      "ĠChinese": 4309,
      "ias": 4310,
      "Ġcelebr": 4311,
      "CO": 4312,
      "ctors": 4313,
      "Ġ)Ċ": 4314,
      "Ġactual": 4315,
      "ford": 4316,
      "ĠEducation": 4317,
      "Ġcop": 4318,
      "Ġoperations": 4319,
      "cember": 4320,
      "water": 4321,
      "Ġson": 4322,
      "Ġpurch": 4323,
      "Ġded": 4324,
      "ara": 4325,
      "Ġplatform": 4326,
      "Int": 4327,
      "Ġfresh": 4328,
      "ĠCong": 4329,
      "ĠSol": 4330,
      "Ġtechnologies": 4331,
      "Ġmob": 4332,
      "HE": 4333,
      "Ġrock": 4334,
      "Ġanti": 4335,
      "ĠWilli": 4336,
      "Ġking": 4337,
      "Ġpeace": 4338,
      "Ġnumerous": 4339,
      "ĠGovern": 4340,
      "Ġsouth": 4341,
      "Ġhom": 4342,
      "conn": 4343,
      "angle": 4344,
      "ube": 4345,
      "Ġdecisions": 4346,
      "Ġpassed": 4347,
      "Ġwoman": 4348,
      "Ġexperim": 4349,
      "force": 4350,
      "ĠÎ": 4351,
      "ching": 4352,
      "Ġdivid": 4353,
      "ĠChar": 4354,
      "Ġobserved": 4355,
      "ĠPy": 4356,
      "Ġplanning": 4357,
      "43": 4358,
      "ĠCity": 4359,
      "ii": 4360,
      "ĠPresident": 4361,
      "Ġeconomy": 4362,
      "2018": 4363,
      "Ġtou": 4364,
      "=None": 4365,
      "ĠAlso": 4366,
      "cohol": 4367,
      "df": 4368,
      "Ġcoming": 4369,
      "Ġcapacity": 4370,
      "Ġgoals": 4371,
      "rupt": 4372,
      "Ġguide": 4373,
      "Ġphen": 4374,
      "ondon": 4375,
      "....": 4376,
      "Ġchanged": 4377,
      "US": 4378,
      "Ġpicture": 4379,
      "Ġworth": 4380,
      "Ġpet": 4381,
      "(c": 4382,
      "Ġbeautiful": 4383,
      "aste": 4384,
      "ĠWell": 4385,
      "Ġdistinct": 4386,
      "Ġexperiment": 4387,
      "plications": 4388,
      "ilit": 4389,
      "Ġlabel": 4390,
      "lor": 4391,
      "ĠKe": 4392,
      "Ġformed": 4393,
      "pped": 4394,
      "Ġhosp": 4395,
      "},": 4396,
      "rew": 4397,
      ".path": 4398,
      "_v": 4399,
      "Ġconver": 4400,
      "ĠPark": 4401,
      "wide": 4402,
      "Ġteeth": 4403,
      "Ġweak": 4404,
      "Ġregions": 4405,
      "ĠThus": 4406,
      "ĠDef": 4407,
      "Ġgold": 4408,
      "yd": 4409,
      "ĠFurther": 4410,
      "ĠIsrael": 4411,
      "pha": 4412,
      "Ġdied": 4413,
      "Ġconnected": 4414,
      "Ġplaced": 4415,
      "Ġequation": 4416,
      "related": 4417,
      "abase": 4418,
      "Ġrelevant": 4419,
      "rief": 4420,
      "gs": 4421,
      "ditionally": 4422,
      "ancing": 4423,
      "ĠHigh": 4424,
      "Ġatmosp": 4425,
      "Ġqual": 4426,
      "ĠLab": 4427,
      "Ġoccup": 4428,
      "Ġallowing": 4429,
      "Ġgiving": 4430,
      "ĠPat": 4431,
      "Ġjoint": 4432,
      "88": 4433,
      "Ġheard": 4434,
      "Ġalternative": 4435,
      "pi": 4436,
      "Ġwatch": 4437,
      "Ġstore": 4438,
      "Ġreference": 4439,
      "ĠWhy": 4440,
      "elines": 4441,
      "arser": 4442,
      "Ġsurg": 4443,
      "ĠSpec": 4444,
      "Ġpresence": 4445,
      "can": 4446,
      "ĠBlack": 4447,
      "Ġconcerns": 4448,
      "omb": 4449,
      "PS": 4450,
      "hab": 4451,
      "Ġsigns": 4452,
      "Â°": 4453,
      "cast": 4454,
      "ĠLaw": 4455,
      "Ġfinding": 4456,
      "41": 4457,
      "ructure": 4458,
      "ĠOnce": 4459,
      "Ġgenetic": 4460,
      "eline": 4461,
      "ĠChurch": 4462,
      "Ġworked": 4463,
      "Cont": 4464,
      "Ġpp": 4465,
      "ees": 4466,
      "Ġsurpr": 4467,
      "ĠCor": 4468,
      "ĠConf": 4469,
      "Ġimag": 4470,
      "Ġcommonly": 4471,
      "ĠSee": 4472,
      "Section": 4473,
      "Ġdivers": 4474,
      "Ġstring": 4475,
      "Ġwanted": 4476,
      "Ġtru": 4477,
      "etime": 4478,
      "Ġresistance": 4479,
      "2020": 4480,
      "ovember": 4481,
      "(l": 4482,
      "eta": 4483,
      "icip": 4484,
      "Ġstarting": 4485,
      "Ġeducational": 4486,
      "Ġfederal": 4487,
      "Ġign": 4488,
      "Ġidentified": 4489,
      "idden": 4490,
      "comm": 4491,
      "61": 4492,
      "wards": 4493,
      "Ġshowed": 4494,
      "upp": 4495,
      "Ġord": 4496,
      "ails": 4497,
      "Ġremove": 4498,
      "Ġfindings": 4499,
      "Ġeasier": 4500,
      "url": 4501,
      "input": 4502,
      "Ġadjust": 4503,
      "Ġflo": 4504,
      "Ġbond": 4505,
      "ĠJanuary": 4506,
      "Ġbirds": 4507,
      "Ġinstruct": 4508,
      "Ġgames": 4509,
      "enty": 4510,
      "arrow": 4511,
      "Ġdecided": 4512,
      "lamm": 4513,
      "-A": 4514,
      "-e": 4515,
      "2019": 4516,
      "anish": 4517,
      "Ġauthors": 4518,
      "Ġgir": 4519,
      "ĠMexic": 4520,
      "iable": 4521,
      "data": 4522,
      "Ġoption": 4523,
      "iding": 4524,
      "alt": 4525,
      "Ġwa": 4526,
      "Ġformer": 4527,
      "ĠAut": 4528,
      "Ġcommerc": 4529,
      "Ġincreases": 4530,
      "Ġresulting": 4531,
      ")$": 4532,
      "ME": 4533,
      "ifying": 4534,
      "onal": 4535,
      "ĠRel": 4536,
      "Ġsquare": 4537,
      "Ġbodies": 4538,
      "Ġid": 4539,
      "lin": 4540,
      "Ġinvolve": 4541,
      "bra": 4542,
      "Ġstrength": 4543,
      "ĠSeptember": 4544,
      "Ġtrend": 4545,
      "Ġpolicies": 4546,
      "-year": 4547,
      "ĠBo": 4548,
      "PA": 4549,
      "igenous": 4550,
      "eper": 4551,
      "Ġoptim": 4552,
      "Ġeffectively": 4553,
      "Ġcand": 4554,
      "orial": 4555,
      "roy": 4556,
      "ĠBi": 4557,
      "ĠVir": 4558,
      "--------------------------------": 4559,
      "Ġnarr": 4560,
      "Ġsurrounding": 4561,
      "Ġcities": 4562,
      "Ġheight": 4563,
      "Ġreality": 4564,
      "Ġcounter": 4565,
      "ĠWashington": 4566,
      "Ġtrain": 4567,
      "ĠOctober": 4568,
      "Ġexhib": 4569,
      "Ġgender": 4570,
      "Ġpromote": 4571,
      "Ġlived": 4572,
      "ĠPeople": 4573,
      "[i": 4574,
      "Ġiniti": 4575,
      "ributed": 4576,
      "ĠĠĠĠĠĠĠĠĠĠĠĠĠĠĠĠĠĠĠĠĠĠĠĠ": 4577,
      "http": 4578,
      ").ĊĊ": 4579,
      "Ġlib": 4580,
      "Ġformat": 4581,
      "Us": 4582,
      "/s": 4583,
      "aters": 4584,
      "OS": 4585,
      "board": 4586,
      "Ġgave": 4587,
      "Ġappears": 4588,
      "estion": 4589,
      "Ġvary": 4590,
      "63": 4591,
      "Ġgets": 4592,
      "Type": 4593,
      "rices": 4594,
      "Ġfemale": 4595,
      "Ġintellig": 4596,
      "Ġwinter": 4597,
      "ĠGeneral": 4598,
      "Ph": 4599,
      "Ġhappens": 4600,
      "All": 4601,
      "Ġmatrix": 4602,
      "Ġseparate": 4603,
      "Ġabsor": 4604,
      "amental": 4605,
      "Ġinterpret": 4606,
      "ouncil": 4607,
      "Ġ+=": 4608,
      "ING": 4609,
      "Ġattract": 4610,
      "Ġconnections": 4611,
      "Ġcitizens": 4612,
      "Ġtele": 4613,
      "Ġpresented": 4614,
      "(p": 4615,
      "annel": 4616,
      "ĠMod": 4617,
      "Ġassist": 4618,
      "plot": 4619,
      "Ġtransfer": 4620,
      "Ġhappen": 4621,
      "Here": 4622,
      "iest": 4623,
      "Ġfamous": 4624,
      "life": 4625,
      "men": 4626,
      "Ġeight": 4627,
      "anging": 4628,
      "Ġstim": 4629,
      "Ġanyone": 4630,
      "85": 4631,
      "Sh": 4632,
      "Ġrequirements": 4633,
      "Ġdiabetes": 4634,
      "ĠEast": 4635,
      "Ġpregn": 4636,
      "ĠData": 4637,
      "antic": 4638,
      "ĠPhys": 4639,
      "cal": 4640,
      "rops": 4641,
      "Ġtrack": 4642,
      "ĠSch": 4643,
      "Ġtopic": 4644,
      "aset": 4645,
      "aign": 4646,
      "Ġboard": 4647,
      "Ġclasses": 4648,
      "Ġblue": 4649,
      "Ġcomfort": 4650,
      "ĠDNA": 4651,
      "ĠUnion": 4652,
      "Ġthousands": 4653,
      "Name": 4654,
      "Ġchanging": 4655,
      "Ġvolume": 4656,
      "Some": 4657,
      "ĠArch": 4658,
      "Ġfaith": 4659,
      "Ġcontract": 4660,
      "object": 4661,
      "Ġfruit": 4662,
      "Ġtor": 4663,
      "ographic": 4664,
      "atin": 4665,
      "Ġdrugs": 4666,
      "Ġrelatively": 4667,
      "othes": 4668,
      "Ġmonit": 4669,
      "Ġpick": 4670,
      "icense": 4671,
      "Ġsolid": 4672,
      "Ġpen": 4673,
      "ĠTr": 4674,
      "ightly": 4675,
      "aur": 4676,
      "Ġillness": 4677,
      "Ġmouth": 4678,
      "Ġexcess": 4679,
      "Ġvill": 4680,
      "Ġbecoming": 4681,
      "Ġnavig": 4682,
      "ĠBecause": 4683,
      "Ġindependent": 4684,
      "Ġsignal": 4685,
      "oding": 4686,
      "02": 4687,
      "Ġtechnique": 4688,
      "Ġeventually": 4689,
      "Ġemotional": 4690,
      "\"ĊĊ": 4691,
      "ĠDecember": 4692,
      "Ġvariable": 4693,
      "Ġcontemporary": 4694,
      "Ġnutri": 4695,
      "ĠRoman": 4696,
      "Ġsem": 4697,
      "Ġinternal": 4698,
      "Ġtruth": 4699,
      "Ġspecifically": 4700,
      "Ġrisks": 4701,
      "uls": 4702,
      "ĠToday": 4703,
      "Ġmentioned": 4704,
      "isf": 4705,
      "ensions": 4706,
      "En": 4707,
      "][": 4708,
      "ĠLondon": 4709,
      "rick": 4710,
      "inn": 4711,
      "ĠÃ": 4712,
      "ensor": 4713,
      "emy": 4714,
      "Â·": 4715,
      "ĠJewish": 4716,
      "Ġincome": 4717,
      "Pl": 4718,
      "orge": 4719,
      "Ġdiscussion": 4720,
      "Ġconsumption": 4721,
      "Ġforeign": 4722,
      "Ġpopulations": 4723,
      "2004": 4724,
      "Ġglass": 4725,
      "ygen": 4726,
      "olved": 4727,
      "Ġsexual": 4728,
      "amm": 4729,
      "ux": 4730,
      "Ġsac": 4731,
      "ĠRev": 4732,
      "\")": 4733,
      "Ġprofession": 4734,
      "do": 4735,
      "xiety": 4736,
      "Ġtox": 4737,
      "Ġbillion": 4738,
      "Ġpref": 4739,
      "Ġunf": 4740,
      "ĠSan": 4741,
      "Ġchurch": 4742,
      "Ġliqu": 4743,
      "level": 4744,
      "Ġunits": 4745,
      "Ġreducing": 4746,
      ".M": 4747,
      "Ġurban": 4748,
      "const": 4749,
      "Ġhop": 4750,
      "ĠWater": 4751,
      "Ġcontrast": 4752,
      "UR": 4753,
      "-C": 4754,
      "gypt": 4755,
      "Ġrefers": 4756,
      "Ġdefinition": 4757,
      "iveness": 4758,
      "pen": 4759,
      "LE": 4760,
      "ĠChapter": 4761,
      "Ġplot": 4762,
      "Ġhair": 4763,
      "-M": 4764,
      "ruary": 4765,
      "Ġschol": 4766,
      "ris": 4767,
      "ĠNet": 4768,
      "Ġgene": 4769,
      "Ġtissue": 4770,
      "Ġmaster": 4771,
      "After": 4772,
      "Ġfrequency": 4773,
      "Ad": 4774,
      "Ġtransl": 4775,
      "Ġbelieved": 4776,
      "Ġadvanced": 4777,
      "Ġarray": 4778,
      "ĠDi": 4779,
      "Ġprepar": 4780,
      "Ġmajority": 4781,
      "Ġnative": 4782,
      "tered": 4783,
      "77": 4784,
      "onic": 4785,
      "iance": 4786,
      "Ġpret": 4787,
      "going": 4788,
      "08": 4789,
      "ĠSociety": 4790,
      "erved": 4791,
      "ean": 4792,
      "Ġhttps": 4793,
      "arning": 4794,
      "Ġtasks": 4795,
      "Ġconv": 4796,
      "ophy": 4797,
      "Ġtrig": 4798,
      "Ġsuggests": 4799,
      "Ġmission": 4800,
      "Ġbelong": 4801,
      "zing": 4802,
      "Ġplans": 4803,
      "Ġvision": 4804,
      "dis": 4805,
      "bal": 4806,
      "ĠAN": 4807,
      "cular": 4808,
      "Ġintroduced": 4809,
      "Ġgeneration": 4810,
      "ĠLa": 4811,
      "Ġready": 4812,
      "Ġopin": 4813,
      "Ġchance": 4814,
      "Se": 4815,
      "Ġimmune": 4816,
      "time": 4817,
      "Ġprocessing": 4818,
      "Ġdepending": 4819,
      "Ġpieces": 4820,
      "asion": 4821,
      "Ġphase": 4822,
      "Ġoperation": 4823,
      "Ġrepresents": 4824,
      "Ġemissions": 4825,
      "ped": 4826,
      "Ġcausing": 4827,
      "Ġfeeling": 4828,
      "Ġagg": 4829,
      "ĠCounty": 4830,
      "Ġstaff": 4831,
      "Ġheavy": 4832,
      "Ġwin": 4833,
      "Ġrecords": 4834,
      "egin": 4835,
      "Ġapproaches": 4836,
      "rt": 4837,
      "rum": 4838,
      "Ġcompl": 4839,
      "ĠEnvironment": 4840,
      "Ġvariables": 4841,
      "ĠSub": 4842,
      "Ġwalk": 4843,
      "stract": 4844,
      "ĠProf": 4845,
      "ĠGermany": 4846,
      "Ġmetal": 4847,
      "ĠNovember": 4848,
      "output": 4849,
      "che": 4850,
      "eties": 4851,
      "ĠVol": 4852,
      "Ġbottom": 4853,
      "Ġrelease": 4854,
      "Ġcomprehens": 4855,
      "ords": 4856,
      "Ġapproximately": 4857,
      "Ġimmediately": 4858,
      "Ġhelping": 4859,
      "Ġsets": 4860,
      "ĠAng": 4861,
      "(\\": 4862,
      "Ġcreation": 4863,
      "Ġsav": 4864,
      "atically": 4865,
      "ping": 4866,
      "Ġstatement": 4867,
      "Ġlanguages": 4868,
      "Ġelim": 4869,
      "Ġreplace": 4870,
      "Ġsynt": 4871,
      "Ġcharacteristics": 4872,
      "Ġpartners": 4873,
      "Ġgarden": 4874,
      "bed": 4875,
      "Ġstar": 4876,
      "Ġcircum": 4877,
      "ocation": 4878,
      "Ġfrequently": 4879,
      "tml": 4880,
      "apers": 4881,
      "Ġunivers": 4882,
      "ĠTherefore": 4883,
      "ĠHouse": 4884,
      "However": 4885,
      "Ġtopics": 4886,
      "rant": 4887,
      "Ġelif": 4888,
      "07": 4889,
      "Ġriver": 4890,
      "omas": 4891,
      "crete": 4892,
      "rame": 4893,
      "ĠSur": 4894,
      "čĊčĊ": 4895,
      "Ġbaby": 4896,
      "hetic": 4897,
      "ĠEgypt": 4898,
      "**ĊĊ": 4899,
      "ressive": 4900,
      "Ġfascinating": 4901,
      "ented": 4902,
      "Ġletter": 4903,
      "house": 4904,
      "wargs": 4905,
      "ĠPublic": 4906,
      "AB": 4907,
      "rot": 4908,
      "Ġonto": 4909,
      "Ġnotes": 4910,
      "road": 4911,
      "Ġreports": 4912,
      "Ġmal": 4913,
      "Ġsituations": 4914,
      "ĠFrance": 4915,
      "Ġbuy": 4916,
      "pes": 4917,
      "Ġturned": 4918,
      "Ġcommercial": 4919,
      "Ġbatter": 4920,
      "Ġiron": 4921,
      "acing": 4922,
      "Ġmedicine": 4923,
      "________": 4924,
      "Ġjournal": 4925,
      "ognitive": 4926,
      ".x": 4927,
      "Ġmaximum": 4928,
      "Ġimpl": 4929,
      "Ġperformed": 4930,
      "Ġdial": 4931,
      "Ġplaying": 4932,
      "Ġfilled": 4933,
      "Ġprefer": 4934,
      "Ġcycle": 4935,
      "ĠWestern": 4936,
      "2003": 4937,
      "Ġsharing": 4938,
      "74": 4939,
      "_w": 4940,
      "Ġthoughts": 4941,
      "\"\"\"Ċ": 4942,
      "Ġpoly": 4943,
      "Ġwonder": 4944,
      "gment": 4945,
      "oper": 4946,
      "Ġalcohol": 4947,
      "Ġimagine": 4948,
      "qual": 4949,
      "Ġcombination": 4950,
      "oke": 4951,
      "Ġmale": 4952,
      "Ġplastic": 4953,
      "Ġsequence": 4954,
      "rome": 4955,
      "-B": 4956,
      "ĠOb": 4957,
      "62": 4958,
      "Ġvital": 4959,
      "Ġdisorder": 4960,
      "flow": 4961,
      "03": 4962,
      "Ġdespite": 4963,
      "Ġremov": 4964,
      "Ġencourage": 4965,
      "Ġstrategy": 4966,
      "Ġcalc": 4967,
      "'.": 4968,
      "Ġawareness": 4969,
      "Ġsurvey": 4970,
      "Ġadvance": 4971,
      "Ġfert": 4972,
      "XX": 4973,
      "Ġupper": 4974,
      "Ġclassroom": 4975,
      "Ġcomponent": 4976,
      "Ġdri": 4977,
      "apping": 4978,
      "ĠAustralia": 4979,
      "Ġmuscle": 4980,
      "Ġleads": 4981,
      "Ġ{}": 4982,
      "Ġstorage": 4983,
      "Ġoffice": 4984,
      "mary": 4985,
      "Ġrelative": 4986,
      "ded": 4987,
      "Ġfeelings": 4988,
      "urance": 4989,
      "Ġmanage": 4990,
      "âĢĿ,": 4991,
      "Ġhelped": 4992,
      "sec": 4993,
      "06": 4994,
      "result": 4995,
      "Ġminim": 4996,
      "Ġexperienced": 4997,
      "uses": 4998,
      "elcome": 4999,
      "rations": 5000,
      "Ġsolve": 5001,
      "isation": 5002,
      "98": 5003,
      "alled": 5004,
      "ĠIts": 5005,
      "Ġparameters": 5006,
      "Ġfilm": 5007,
      "Ġclearly": 5008,
      "Ġparty": 5009,
      "ĠProgram": 5010,
      "anch": 5011,
      "ĠAlex": 5012,
      "Ġgenerate": 5013,
      "Ġsamples": 5014,
      "Ġcolors": 5015,
      "Ġhighest": 5016,
      "Ġmo": 5017,
      "semb": 5018,
      "Ġclinical": 5019,
      "ĠDon": 5020,
      "empl": 5021,
      "Ġcomment": 5022,
      "Ġoutcomes": 5023,
      "=False": 5024,
      "-up": 5025,
      "Ġtemperatures": 5026,
      "ĠGreen": 5027,
      "enth": 5028,
      "ĠMark": 5029,
      "Ġreaction": 5030,
      "'m": 5031,
      "which": 5032,
      "Ġargument": 5033,
      "inger": 5034,
      "ĠMor": 5035,
      "return": 5036,
      "ĠUsing": 5037,
      "Ġimproved": 5038,
      "300": 5039,
      "otal": 5040,
      "Ġcontinuous": 5041,
      "ĠMedic": 5042,
      "Ġpages": 5043,
      "eries": 5044,
      "Ġtreated": 5045,
      "Ġfreedom": 5046,
      "ĠClass": 5047,
      "Ġsustainable": 5048,
      "ĠPal": 5049,
      "Ġhuge": 5050,
      "Ġcontaining": 5051,
      "CC": 5052,
      "eding": 5053,
      "Ġlessons": 5054,
      "Ġinsect": 5055,
      "alysis": 5056,
      "DF": 5057,
      "''": 5058,
      "Ġparticipants": 5059,
      "ĠPhil": 5060,
      "Ġexpert": 5061,
      "Ġfollows": 5062,
      "ework": 5063,
      "From": 5064,
      "Ġorigin": 5065,
      "Ġantib": 5066,
      "Ġextract": 5067,
      "zer": 5068,
      "Ġ...": 5069,
      "Ġdecades": 5070,
      "aint": 5071,
      "Ġspeech": 5072,
      "Ind": 5073,
      "Ġdegrees": 5074,
      "Ġcarried": 5075,
      "image": 5076,
      "Ġindustrial": 5077,
      "Ġefficiency": 5078,
      "Ġbreast": 5079,
      "Ġdeeper": 5080,
      "Ġmist": 5081,
      "ira": 5082,
      "ÂłÂł": 5083,
      "hips": 5084,
      "Ġfelt": 5085,
      "Ġerr": 5086,
      "Ġspring": 5087,
      "Ġisol": 5088,
      "ĠAssociation": 5089,
      "Ġcharge": 5090,
      "Ġreaders": 5091,
      "(b": 5092,
      "Ġinsights": 5093,
      "Ġphenomen": 5094,
      "DA": 5095,
      "Ġengineering": 5096,
      "Ġextremely": 5097,
      "No": 5098,
      "ĠAv": 5099,
      "ressed": 5100,
      "ortunately": 5101,
      "ĠExpl": 5102,
      "Ġcourt": 5103,
      "Ġdisorders": 5104,
      "\\xf": 5105,
      "Ġemail": 5106,
      "iverse": 5107,
      "Ġplease": 5108,
      "ĠBra": 5109,
      "Ġmilk": 5110,
      "Ġdescribe": 5111,
      "Ġbed": 5112,
      "ida": 5113,
      "pace": 5114,
      "Ġround": 5115,
      "Ġviolence": 5116,
      "Ġzero": 5117,
      "Ġmoved": 5118,
      "ĠSocial": 5119,
      "Ġhomes": 5120,
      "MS": 5121,
      "Ġrace": 5122,
      "osystem": 5123,
      "Ġpractical": 5124,
      "vision": 5125,
      "ĠPlan": 5126,
      ".sh": 5127,
      "ĠDevelopment": 5128,
      "Ġmotiv": 5129,
      "().": 5130,
      "Ġdepression": 5131,
      "Ġconducted": 5132,
      "ij": 5133,
      "Ġseven": 5134,
      "Ġconclusion": 5135,
      "Ġbuildings": 5136,
      "ĠCongress": 5137,
      "à¤": 5138,
      "Ġhealthcare": 5139,
      "iling": 5140,
      "Ġfol": 5141,
      "ĠUN": 5142,
      "ishing": 5143,
      "Ġreligion": 5144,
      "osen": 5145,
      "Ġsyn": 5146,
      "fl": 5147,
      "Ġwidely": 5148,
      "Ġdrive": 5149,
      "Ġincreasingly": 5150,
      "ĠSupp": 5151,
      "/or": 5152,
      "RI": 5153,
      "Ġvul": 5154,
      "ĠST": 5155,
      "Ġlibrary": 5156,
      "09": 5157,
      "rieved": 5158,
      "Ġestimated": 5159,
      "58": 5160,
      "Ġlooks": 5161,
      "rence": 5162,
      "04": 5163,
      "Ġast": 5164,
      "Ġdetermined": 5165,
      "leg": 5166,
      "Ġconflict": 5167,
      "Ġoxygen": 5168,
      "eria": 5169,
      "ĠGreek": 5170,
      "Ġdoub": 5171,
      "Ġminor": 5172,
      "_dict": 5173,
      "icated": 5174,
      "ĠUK": 5175,
      "rics": 5176,
      "2001": 5177,
      "cons": 5178,
      "ologists": 5179,
      "ĠFebruary": 5180,
      "Ġinfluen": 5181,
      "ĠJapanese": 5182,
      "Ġnotice": 5183,
      "ste": 5184,
      "ĠFound": 5185,
      "iced": 5186,
      "-n": 5187,
      "Ġplays": 5188,
      "poses": 5189,
      "Ġfundamental": 5190,
      "Ġsounds": 5191,
      "cap": 5192,
      "ĠĠĠĠĊ": 5193,
      "Ġelectricity": 5194,
      "ilarly": 5195,
      "Ġbusinesses": 5196,
      "Ġterrit": 5197,
      "ĠUnderstanding": 5198,
      "CH": 5199,
      "Ġtrou": 5200,
      "Ġsettings": 5201,
      "Ġthick": 5202,
      "Ġexternal": 5203,
      "vis": 5204,
      "72": 5205,
      "Ġpurs": 5206,
      "mark": 5207,
      "Ġadding": 5208,
      "Ġmeeting": 5209,
      "Ġuns": 5210,
      "Ġanxiety": 5211,
      "Ġcharg": 5212,
      "essage": 5213,
      "Ġinterested": 5214,
      "roph": 5215,
      "ĠInternet": 5216,
      "ĠSom": 5217,
      "\\Ċ": 5218,
      "Ġple": 5219,
      "Ġhousehold": 5220,
      "They": 5221,
      "Ġlegis": 5222,
      "ĠWilliam": 5223,
      "Ġexcell": 5224,
      "enses": 5225,
      "Ġspot": 5226,
      "anges": 5227,
      "ĠMich": 5228,
      "icial": 5229,
      "gin": 5230,
      "ĠJames": 5231,
      "ĠDavid": 5232,
      "Ġcampaign": 5233,
      "ĠAdditionally": 5234,
      "Ġsuppl": 5235,
      "Ġtheore": 5236,
      "Ġacademic": 5237,
      "Ġstraight": 5238,
      "Ġcultures": 5239,
      "-D": 5240,
      "Ġnuclear": 5241,
      "ĠIN": 5242,
      "ĠRef": 5243,
      "Ġcovered": 5244,
      "ĠInstead": 5245,
      "Ġproposed": 5246,
      "Ġmeant": 5247,
      "Ġnutrition": 5248,
      "oma": 5249,
      "Ġsong": 5250,
      "ĠGra": 5251,
      "Ġ$$\\": 5252,
      "Ġengage": 5253,
      "ulf": 5254,
      "Why": 5255,
      "unk": 5256,
      "Ġvot": 5257,
      "Ġmode": 5258,
      "Ġhear": 5259,
      "Ġconsequences": 5260,
      "Ġtitle": 5261,
      "unc": 5262,
      "Ġconservation": 5263,
      ".T": 5264,
      "ĠHuman": 5265,
      "Ġsaying": 5266,
      "Ġwave": 5267,
      "Ġfinally": 5268,
      "akers": 5269,
      "Ġsatisf": 5270,
      "Ġlinear": 5271,
      "Ġfailure": 5272,
      "Ġflex": 5273,
      "Ġpreviously": 5274,
      "Ġocean": 5275,
      "Ġsand": 5276,
      "ĠProject": 5277,
      "Ġinstitutions": 5278,
      "Ġmel": 5279,
      "Ġparticles": 5280,
      "Ġfine": 5281,
      "Ġproperly": 5282,
      "rier": 5283,
      "Ġradio": 5284,
      "pat": 5285,
      "Ġorganic": 5286,
      "Ġitem": 5287,
      "ned": 5288,
      "active": 5289,
      "Ġscreen": 5290,
      "Ġbone": 5291,
      "ĠMary": 5292,
      "ologist": 5293,
      "Ġradiation": 5294,
      "ĠMr": 5295,
      "Ġsecret": 5296,
      "aker": 5297,
      "Ġupd": 5298,
      "ball": 5299,
      "Ġconsc": 5300,
      "Ġ('": 5301,
      "Ġtrib": 5302,
      "Ġcm": 5303,
      "inding": 5304,
      "Ġremoved": 5305,
      "Ġvast": 5306,
      "Ġdram": 5307,
      "Ġassessment": 5308,
      "Ġcontinues": 5309,
      "Ġaren": 5310,
      "_dir": 5311,
      "Ġrecommended": 5312,
      "Ġmer": 5313,
      "Ġnetworks": 5314,
      "Ġreferred": 5315,
      "tee": 5316,
      "Ã¡": 5317,
      "Ġfocused": 5318,
      "Ġdouble": 5319,
      "Ġseed": 5320,
      "roduct": 5321,
      "Ġinterests": 5322,
      "ĠOff": 5323,
      "Ġjo": 5324,
      "Another": 5325,
      "then": 5326,
      "Ġdestroy": 5327,
      "Ġcook": 5328,
      "otic": 5329,
      "Ġprimarily": 5330,
      "lean": 5331,
      "Ġarticles": 5332,
      "Ġdiss": 5333,
      "2002": 5334,
      "Ġprepared": 5335,
      "Ġnode": 5336,
      "TS": 5337,
      "roc": 5338,
      "59": 5339,
      "Ġfacilit": 5340,
      "list": 5341,
      "Ġreleased": 5342,
      "Ġmotion": 5343,
      "Ġviews": 5344,
      "Ġenhance": 5345,
      "Ġexperts": 5346,
      "stitution": 5347,
      "ĠMal": 5348,
      "Ġdiversity": 5349,
      "ĠHel": 5350,
      "Ġseek": 5351,
      "Ġhyper": 5352,
      "uster": 5353,
      "anguage": 5354,
      "Ġarm": 5355,
      "Qu": 5356,
      "ĠOrgan": 5357,
      "Ġschem": 5358,
      "Ġsupported": 5359,
      "ĠWeb": 5360,
      "othing": 5361,
      "Ġpal": 5362,
      "Ġchronic": 5363,
      "Ġkeeping": 5364,
      "Ġcollege": 5365,
      "Ġspent": 5366,
      "Ġdict": 5367,
      "olid": 5368,
      "57": 5369,
      "cript": 5370,
      "raint": 5371,
      "ĠPost": 5372,
      "Ġnor": 5373,
      "Ġotherwise": 5374,
      "asure": 5375,
      "Ġcast": 5376,
      "ĠAD": 5377,
      "Ġdescription": 5378,
      "Ġadvantage": 5379,
      "Ġserved": 5380,
      "Ġfamiliar": 5381,
      ".A": 5382,
      "rich": 5383,
      "vironments": 5384,
      "âĢĿ.": 5385,
      "ibilities": 5386,
      "That": 5387,
      "ĠSpanish": 5388,
      "ĠEv": 5389,
      "Ġformation": 5390,
      "ingly": 5391,
      "Ġsend": 5392,
      "Ġrul": 5393,
      "ipe": 5394,
      "ĠInf": 5395,
      "Ġbud": 5396,
      "Ġroll": 5397,
      "oyal": 5398,
      "Ġingred": 5399,
      "OD": 5400,
      "co": 5401,
      "ĠâĢ¦": 5402,
      "Ġgenes": 5403,
      "Ġpresident": 5404,
      "ĠLord": 5405,
      "ĠOpt": 5406,
      "Ġplayed": 5407,
      "erver": 5408,
      "Ġdra": 5409,
      "Ġtour": 5410,
      "itage": 5411,
      "ĠEvery": 5412,
      "ĠCre": 5413,
      "Ġroots": 5414,
      "dent": 5415,
      "ĠPort": 5416,
      "Ġspaces": 5417,
      "New": 5418,
      "])": 5419,
      "ĠBas": 5420,
      "oul": 5421,
      "ĠMoreover": 5422,
      "ĠSet": 5423,
      "ĠSy": 5424,
      "olve": 5425,
      "Ġideal": 5426,
      "za": 5427,
      "Ġstream": 5428,
      "Ġlinked": 5429,
      "icians": 5430,
      "Ġadvoc": 5431,
      "Ġexistence": 5432,
      "Ġpurposes": 5433,
      ".)Ċ": 5434,
      "mod": 5435,
      "Ġflood": 5436,
      "Ġgod": 5437,
      "((": 5438,
      "Ġjustice": 5439,
      "Ġwealth": 5440,
      "arp": 5441,
      "Ġreb": 5442,
      "Ġkid": 5443,
      "ä¸": 5444,
      "Ġseeds": 5445,
      "ĠFood": 5446,
      "Ġadvent": 5447,
      "-th": 5448,
      "Ġ!": 5449,
      "Ġbattle": 5450,
      "ĠBoth": 5451,
      "Ġvess": 5452,
      "Ġpros": 5453,
      "Ġdogs": 5454,
      "ĠCollege": 5455,
      "ĠDem": 5456,
      "Ġspiritual": 5457,
      "isher": 5458,
      "Ġdefine": 5459,
      "73": 5460,
      "[:": 5461,
      "Ġperspective": 5462,
      ".__": 5463,
      "ĠFurthermore": 5464,
      "Ġannual": 5465,
      "Ġaccurate": 5466,
      "Ġcombined": 5467,
      "Ġmere": 5468,
      "Ġadop": 5469,
      "Ġneut": 5470,
      "etal": 5471,
      "inations": 5472,
      "Ġamounts": 5473,
      "Ġvolunt": 5474,
      "Ġvulner": 5475,
      "Ġsufficient": 5476,
      ".ex": 5477,
      "Ġq": 5478,
      "Ġmostly": 5479,
      "Ġgrant": 5480,
      "Ġcreative": 5481,
      "Ġmovements": 5482,
      "Ġvector": 5483,
      "Field": 5484,
      "Ġcredit": 5485,
      "Ġfaster": 5486,
      "iform": 5487,
      "Ġrain": 5488,
      "ĠSun": 5489,
      "Ġreduction": 5490,
      "Ġcenturies": 5491,
      "nic": 5492,
      "Ġlesson": 5493,
      "Ġobvious": 5494,
      "ulating": 5495,
      "Ġchoices": 5496,
      "ario": 5497,
      "Ġju": 5498,
      "Not": 5499,
      "Ġchallenging": 5500,
      "ĠGeorge": 5501,
      "79": 5502,
      "Ġdie": 5503,
      "Ġwis": 5504,
      "ĠDel": 5505,
      "ĠCouncil": 5506,
      "ĠSk": 5507,
      "ipped": 5508,
      "ĠProt": 5509,
      "AG": 5510,
      "ava": 5511,
      "Ġexplained": 5512,
      "}$$": 5513,
      "inant": 5514,
      "Ġhour": 5515,
      "Ġexecut": 5516,
      "ĠOut": 5517,
      "Ġsubjects": 5518,
      "ĠTex": 5519,
      "Ġconsult": 5520,
      "ĠGet": 5521,
      "_pro": 5522,
      "Ġobtained": 5523,
      "Ġdangerous": 5524,
      "ĠChildren": 5525,
      "Ġedge": 5526,
      "Ġatmosphere": 5527,
      "Ġmatch": 5528,
      "ML": 5529,
      "ĠAir": 5530,
      "down": 5531,
      "-like": 5532,
      "ĠDec": 5533,
      "Ġsimpl": 5534,
      "Ġemotions": 5535,
      "Ġfilter": 5536,
      "Ġmaintaining": 5537,
      "Ġconvent": 5538,
      "Ġstudying": 5539,
      "amil": 5540,
      "Ġminimum": 5541,
      "Ġhappened": 5542,
      "Ġgrad": 5543,
      "Ġsides": 5544,
      "ras": 5545,
      "ĠRepublic": 5546,
      "Ġclosely": 5547,
      "****": 5548,
      "1990": 5549,
      "icit": 5550,
      "Ġequival": 5551,
      "rapy": 5552,
      "Ġletters": 5553,
      "Ġmotor": 5554,
      "Ġhit": 5555,
      "Ġcraft": 5556,
      "IG": 5557,
      "faces": 5558,
      "ĠBel": 5559,
      "ested": 5560,
      "Ġnoted": 5561,
      "ĠStudents": 5562,
      "gl": 5563,
      "ĠTur": 5564,
      "Ġcolle": 5565,
      "Ġaid": 5566,
      "Ġsmart": 5567,
      "Ġowners": 5568,
      "Ġnan": 5569,
      "ĠUp": 5570,
      "ASA": 5571,
      "CT": 5572,
      "ĠPaul": 5573,
      "Ġyield": 5574,
      "osite": 5575,
      "ĠSam": 5576,
      "aughter": 5577,
      "Ġreached": 5578,
      "Ġconfirm": 5579,
      ".P": 5580,
      "Ġecosystem": 5581,
      "ĠFore": 5582,
      "Ġalgorithm": 5583,
      "Ġshowing": 5584,
      "Ġinjury": 5585,
      "Ġmeat": 5586,
      "Ġtum": 5587,
      "Ġwhom": 5588,
      "Ġselected": 5589,
      "Ġenvironments": 5590,
      "ĠDisc": 5591,
      "Ġreturned": 5592,
      "Ġresist": 5593,
      "Ġkn": 5594,
      "Ġkilled": 5595,
      "ossible": 5596,
      "Ġsurgery": 5597,
      "**:": 5598,
      "IM": 5599,
      "-se": 5600,
      "azing": 5601,
      "Ġresponsibility": 5602,
      "Ġexists": 5603,
      "iled": 5604,
      "Ġgrand": 5605,
      "Ġcareer": 5606,
      "ander": 5607,
      "Ġargs": 5608,
      "Ġcultiv": 5609,
      "instance": 5610,
      "well": 5611,
      ".;": 5612,
      "Ġinflamm": 5613,
      "Ġimpacts": 5614,
      "54": 5615,
      "Ġearn": 5616,
      "IR": 5617,
      "imens": 5618,
      "Ġworldwide": 5619,
      "rating": 5620,
      "riage": 5621,
      "Ġgather": 5622,
      "Ġgenerated": 5623,
      "Ġprocedure": 5624,
      "Gen": 5625,
      "Ġfigures": 5626,
      "cd": 5627,
      "ĠIslam": 5628,
      "Ġapart": 5629,
      "igned": 5630,
      "ya": 5631,
      "Ġdatabase": 5632,
      "Ġvoice": 5633,
      "Ġfixed": 5634,
      "Ġtechnical": 5635,
      "Ġexplan": 5636,
      "icks": 5637,
      "Ġliquid": 5638,
      "Ġgrass": 5639,
      "UN": 5640,
      "Ġslightly": 5641,
      "iated": 5642,
      "Ġtried": 5643,
      "ĠRober": 5644,
      "Ġpollution": 5645,
      "Ġvegetables": 5646,
      "Ġmulti": 5647,
      "Ġvictim": 5648,
      "Ġwindow": 5649,
      "Ġfarmers": 5650,
      "ĠList": 5651,
      "Ġabsol": 5652,
      "Ġisland": 5653,
      "Ġbank": 5654,
      "Ġensuring": 5655,
      "Ġfacts": 5656,
      "lick": 5657,
      "max": 5658,
      "ĠAsia": 5659,
      "cking": 5660,
      "Ġblog": 5661,
      "eps": 5662,
      "ificial": 5663,
      "ictionary": 5664,
      "ometry": 5665,
      "Ġmanufacture": 5666,
      "cale": 5667,
      "Ġlooked": 5668,
      "ĠWind": 5669,
      "ycl": 5670,
      "Ġformula": 5671,
      "ĠBar": 5672,
      "Ġstation": 5673,
      "First": 5674,
      "ayer": 5675,
      "Ġgenerations": 5676,
      "Ġfavorite": 5677,
      "Ġscript": 5678,
      "ĠLife": 5679,
      "ado": 5680,
      "ĠPower": 5681,
      "ĠTwo": 5682,
      "Ġpotentially": 5683,
      "ĠCath": 5684,
      "qrt": 5685,
      "Ġserver": 5686,
      "Ġbeliefs": 5687,
      "ĠIsland": 5688,
      "Ġkept": 5689,
      "ago": 5690,
      "Ġindicate": 5691,
      "Ġpun": 5692,
      "Ġenable": 5693,
      "itness": 5694,
      "nes": 5695,
      "ypes": 5696,
      "Ġoperating": 5697,
      "Ġperiods": 5698,
      "Ġap": 5699,
      "berg": 5700,
      "uzz": 5701,
      "Ġhighlight": 5702,
      "Ġequations": 5703,
      "ĠRetrieved": 5704,
      "Ġdensity": 5705,
      "_r": 5706,
      "Ġlandscape": 5707,
      "HO": 5708,
      "Ġexamine": 5709,
      "Our": 5710,
      "igma": 5711,
      "rastructure": 5712,
      "Ġparalle": 5713,
      ">Ċ": 5714,
      "Ġsusp": 5715,
      "ifies": 5716,
      "Data": 5717,
      "ogue": 5718,
      "fil": 5719,
      "Ġcos": 5720,
      "Ġconclud": 5721,
      "89": 5722,
      "Ġhorm": 5723,
      "CE": 5724,
      "400": 5725,
      "Ġship": 5726,
      "Ġproport": 5727,
      "List": 5728,
      "bi": 5729,
      "Ġleaving": 5730,
      "Ġexposed": 5731,
      "Ġprobability": 5732,
      "ĠMuseum": 5733,
      "Ġtherm": 5734,
      "Ġpossess": 5735,
      "52": 5736,
      "Ġpush": 5737,
      "Ġtraffic": 5738,
      "Ġintended": 5739,
      "hent": 5740,
      "Ġcapable": 5741,
      "Ġrenew": 5742,
      "erent": 5743,
      "Ġcompleted": 5744,
      "inent": 5745,
      "Ġfluid": 5746,
      "uracy": 5747,
      "ĠBen": 5748,
      "Ab": 5749,
      "Equal": 5750,
      "Ġdiam": 5751,
      "53": 5752,
      "Ġhelpful": 5753,
      "Ġauthority": 5754,
      "ĠRich": 5755,
      "ĠService": 5756,
      "string": 5757,
      "Ġeggs": 5758,
      "Ġanswers": 5759,
      "ĠMount": 5760,
      "Ġtail": 5761,
      "Ġcollabor": 5762,
      "Ġprofessionals": 5763,
      "box": 5764,
      "ria": 5765,
      "Ġmeasured": 5766,
      "Ġconsid": 5767,
      "ĠAdd": 5768,
      "Ġdepends": 5769,
      "ĠUnit": 5770,
      "Ġknew": 5771,
      "SS": 5772,
      "Ġtreatments": 5773,
      "Ġstars": 5774,
      "Ġsignificance": 5775,
      "Ġjobs": 5776,
      "Ġpretty": 5777,
      "Ġmarg": 5778,
      "ĠGovernment": 5779,
      "bf": 5780,
      "iant": 5781,
      "ĠHen": 5782,
      "that": 5783,
      "Ġelectrical": 5784,
      "no": 5785,
      "ĠMake": 5786,
      "ĠSecond": 5787,
      "wood": 5788,
      "Ġdro": 5789,
      "weight": 5790,
      "ĠOF": 5791,
      "Ġclient": 5792,
      "Ġrecognize": 5793,
      "Ġbrief": 5794,
      "what": 5795,
      "ĠDist": 5796,
      "ĠElect": 5797,
      "ĠLearning": 5798,
      "riculum": 5799,
      "))ĊĊ": 5800,
      "According": 5801,
      "Ġengaging": 5802,
      "Ġcarefully": 5803,
      "Ġhearing": 5804,
      "56": 5805,
      "Ġtaught": 5806,
      "ĠDirect": 5807,
      "=\\": 5808,
      "asp": 5809,
      "reed": 5810,
      "version": 5811,
      "Ġsecure": 5812,
      "Ġoffered": 5813,
      "Ġnations": 5814,
      "Ġflat": 5815,
      "Ġinfections": 5816,
      "Ġclick": 5817,
      "Ġourselves": 5818,
      "Ġband": 5819,
      "Many": 5820,
      "Ġvitamin": 5821,
      "Ġpul": 5822,
      "gebra": 5823,
      "Ġlinks": 5824,
      "field": 5825,
      "Ġ[]Ċ": 5826,
      "Ġartists": 5827,
      "astern": 5828,
      "Ġsubsequ": 5829,
      "valid": 5830,
      "Ġmonitoring": 5831,
      "Ġkinds": 5832,
      "loat": 5833,
      "Ġdu": 5834,
      "lig": 5835,
      "ĠSuch": 5836,
      "ĠBudd": 5837,
      "Ġessay": 5838,
      "Ġsmooth": 5839,
      "Ġcere": 5840,
      "Ġratio": 5841,
      "orough": 5842,
      "ĠĠĠĠĠĠĠĠĠĠĠĠĠĠĠĠĠĠĠĠĠĠĠĠĠĠĠ": 5843,
      "-related": 5844,
      "ĠWhite": 5845,
      "Ġrevolution": 5846,
      "Ġcognitive": 5847,
      "olving": 5848,
      "ĠMac": 5849,
      "Ġincred": 5850,
      "51": 5851,
      "Ġsubstant": 5852,
      "api": 5853,
      "Ġexchange": 5854,
      "ools": 5855,
      "inder": 5856,
      "Ġframe": 5857,
      "Ġtooth": 5858,
      "plicated": 5859,
      "Ġexcellent": 5860,
      "_S": 5861,
      "eli": 5862,
      "ĠMexico": 5863,
      "Ġhandle": 5864,
      "ï¼": 5865,
      "idth": 5866,
      "Ġraised": 5867,
      "ndrome": 5868,
      "Ġtalking": 5869,
      "ĠAtt": 5870,
      "Ġremained": 5871,
      "uilding": 5872,
      "aks": 5873,
      ":**": 5874,
      "ĠGoogle": 5875,
      "Ġlung": 5876,
      "-P": 5877,
      "Ġchain": 5878,
      "Ġdive": 5879,
      "Ġban": 5880,
      "conds": 5881,
      "Ġdiscussed": 5882,
      "Ġextreme": 5883,
      "pping": 5884,
      "Ġdoll": 5885,
      "Ġmainly": 5886,
      "Ġtex": 5887,
      "ellect": 5888,
      "ĠEnergy": 5889,
      "More": 5890,
      "Ġpair": 5891,
      "Ġbegins": 5892,
      "Ġmaybe": 5893,
      "stood": 5894,
      "-L": 5895,
      "Ġinvolving": 5896,
      "Ġmedium": 5897,
      "racy": 5898,
      "_se": 5899,
      "Ġmort": 5900,
      "Ġgoods": 5901,
      "anged": 5902,
      "Ġconsistent": 5903,
      "Ġforced": 5904,
      "ĠAny": 5905,
      "Ġclosed": 5906,
      "ampl": 5907,
      "ĠStand": 5908,
      "Ġdiscrim": 5909,
      "ĠCentral": 5910,
      "essor": 5911,
      "Ġdrop": 5912,
      "IP": 5913,
      "ĠBr": 5914,
      "Ġmanner": 5915,
      "ĠCam": 5916,
      "nam": 5917,
      "net": 5918,
      "Ġintelligence": 5919,
      "Ġmit": 5920,
      "Ġspend": 5921,
      "ĠPython": 5922,
      "Ġconsists": 5923,
      "_re": 5924,
      "Ġgrav": 5925,
      "Ġbrother": 5926,
      "Ġcircumst": 5927,
      "Ġglob": 5928,
      "aturally": 5929,
      "Ġfort": 5930,
      "values": 5931,
      "Ġsouthern": 5932,
      "Ġdiag": 5933,
      "Ġsuggested": 5934,
      "Ġfirm": 5935,
      "Ġcert": 5936,
      "ENT": 5937,
      "ĠBay": 5938,
      "Ġraw": 5939,
      "Ġsalt": 5940,
      "cers": 5941,
      "Ġadvice": 5942,
      "acific": 5943,
      "ses": 5944,
      "ifier": 5945,
      "ĠMart": 5946,
      "Ġimmig": 5947,
      "Ġcris": 5948,
      "Ġcomputers": 5949,
      "ĠArab": 5950,
      "Ġrepresentation": 5951,
      "osa": 5952,
      "Ġlayers": 5953,
      "style": 5954,
      "ether": 5955,
      "Ġgrade": 5956,
      "position": 5957,
      "la": 5958,
      "ĠHistor": 5959,
      "Te": 5960,
      "Ġangle": 5961,
      "eless": 5962,
      "Ġchemicals": 5963,
      "Ġkill": 5964,
      "Ġdivided": 5965,
      "ĠMars": 5966,
      "âĢĻm": 5967,
      "ancer": 5968,
      "Ġbird": 5969,
      "Ġtal": 5970,
      "ĠJews": 5971,
      "Ġhospital": 5972,
      "elled": 5973,
      "1999": 5974,
      "stream": 5975,
      "Ġaffects": 5976,
      "Ġnorthern": 5977,
      "orph": 5978,
      "':Ċ": 5979,
      "My": 5980,
      "ture": 5981,
      "ĠCourt": 5982,
      "hi": 5983,
      "ĠLatin": 5984,
      "Key": 5985,
      "Ġmorning": 5986,
      "/d": 5987,
      "Ġprices": 5988,
      "iration": 5989,
      "ĠInc": 5990,
      "Ġongoing": 5991,
      "Ġdocuments": 5992,
      "BC": 5993,
      "Ġwaters": 5994,
      "Ġphone": 5995,
      "Ġyellow": 5996,
      "Ġselection": 5997,
      "ĠComput": 5998,
      "1000": 5999,
      "urity": 6000,
      "$,": 6001,
      "Ġcoal": 6002,
      "Ġinvestment": 6003,
      "Ġimplementation": 6004,
      "cknow": 6005,
      "Ġflowers": 6006,
      "ĠHar": 6007,
      "ĠTechnology": 6008,
      "OL": 6009,
      "Ġfrag": 6010,
      "Ġappoint": 6011,
      "ĠAcad": 6012,
      "ounced": 6013,
      "Ġwest": 6014,
      "Ġgovernments": 6015,
      "Ġformal": 6016,
      "coming": 6017,
      "Ġsett": 6018,
      "Ġtiny": 6019,
      ".py": 6020,
      "Ġvent": 6021,
      "conomic": 6022,
      "Ġsector": 6023,
      "Ġcertainly": 6024,
      "Ġcollected": 6025,
      "-re": 6026,
      ")(": 6027,
      "abled": 6028,
      "_x": 6029,
      "ears": 6030,
      "Ġclim": 6031,
      "ĠHIV": 6032,
      "76": 6033,
      "Ġseeking": 6034,
      "Ġdetailed": 6035,
      "yles": 6036,
      "Ġmuscles": 6037,
      "Ġdiscovery": 6038,
      "Ġentry": 6039,
      "Ġroles": 6040,
      "Imagine": 6041,
      "SE": 6042,
      "Ġcreates": 6043,
      "Ġimproving": 6044,
      "lete": 6045,
      "Ġoccurred": 6046,
      "ĠHave": 6047,
      "ael": 6048,
      "Ġextent": 6049,
      "nel": 6050,
      "ĠFe": 6051,
      "ĠâĪ": 6052,
      "atever": 6053,
      "Ġstorm": 6054,
      "Ġguidelines": 6055,
      "Ġbright": 6056,
      "ĠTime": 6057,
      "Ġparties": 6058,
      "othe": 6059,
      "Ġtransition": 6060,
      "tage": 6061,
      "Ġthin": 6062,
      "Ġdisapp": 6063,
      "ĠHol": 6064,
      "ĠThomas": 6065,
      "Ġdrawing": 6066,
      "Although": 6067,
      "')ĊĊ": 6068,
      "ÃŃ": 6069,
      "Ġrecorded": 6070,
      "ĠCivil": 6071,
      "De": 6072,
      "Ġcloser": 6073,
      "Ġrapidly": 6074,
      "Ġtruly": 6075,
      "Ġprocedures": 6076,
      "label": 6077,
      "Ġstone": 6078,
      "omy": 6079,
      "Ġdiagnosis": 6080,
      "tenance": 6081,
      "ĠSen": 6082,
      "while": 6083,
      "Ġpray": 6084,
      "ician": 6085,
      "verty": 6086,
      "_P": 6087,
      "Ġultimately": 6088,
      "Ġyouth": 6089,
      "ĠSal": 6090,
      "Ġdownload": 6091,
      "Ġsports": 6092,
      "Ġwet": 6093,
      "ĠTexas": 6094,
      "Ġknows": 6095,
      "ĠMiss": 6096,
      "ums": 6097,
      "Ġpoverty": 6098,
      "ĠLou": 6099,
      "ĠSpace": 6100,
      "ĠPract": 6101,
      "olf": 6102,
      "ĠAnother": 6103,
      "amily": 6104,
      "ĠDet": 6105,
      "ĠKore": 6106,
      "Ġfill": 6107,
      "Ġresil": 6108,
      "cel": 6109,
      "ĠOld": 6110,
      "Ġtraditions": 6111,
      "Ġleader": 6112,
      "Ġbow": 6113,
      "gal": 6114,
      "ups": 6115,
      "roid": 6116,
      "Ġrough": 6117,
      "roke": 6118,
      "ĠMiddle": 6119,
      "Ġtypical": 6120,
      "ĠEngine": 6121,
      "Ġsuitable": 6122,
      "Ġinstruction": 6123,
      "Ġdepth": 6124,
      "ĠMuslim": 6125,
      "Ġtoxic": 6126,
      "Ġproteins": 6127,
      "clusive": 6128,
      "process": 6129,
      "ĠNav": 6130,
      "bar": 6131,
      "ĠQue": 6132,
      "Ġinternet": 6133,
      "Ġregional": 6134,
      "Ġdeliver": 6135,
      "Ġbiological": 6136,
      "Ġprinciple": 6137,
      "âĢī": 6138,
      "Ġconscious": 6139,
      "request": 6140,
      "Ġalt": 6141,
      "Ġunderlying": 6142,
      "ĠMicro": 6143,
      "Ġstudied": 6144,
      "Ġhoriz": 6145,
      "itors": 6146,
      "lock": 6147,
      "Ġconcentration": 6148,
      "using": 6149,
      "Ġinteraction": 6150,
      "state": 6151,
      "under": 6152,
      ":čĊ": 6153,
      "ĠBritain": 6154,
      "Ġchosen": 6155,
      "Ġcontrolled": 6156,
      "Ġvehicle": 6157,
      "ville": 6158,
      "ĠTHE": 6159,
      "Ġneuro": 6160,
      "DE": 6161,
      ">>": 6162,
      "Ġinfrastructure": 6163,
      "Ġelev": 6164,
      "Ġdrinking": 6165,
      "kwargs": 6166,
      "ny": 6167,
      "Ġcandid": 6168,
      "ĠManagement": 6169,
      "\\xc": 6170,
      "_in": 6171,
      "anes": 6172,
      "_value": 6173,
      "Ġfaced": 6174,
      "Ġabuse": 6175,
      "arter": 6176,
      "Ġstored": 6177,
      "Ġframework": 6178,
      "Ġtorch": 6179,
      "Ġnit": 6180,
      "Ġnerv": 6181,
      "Ġworry": 6182,
      "Ġstarts": 6183,
      "ĠCult": 6184,
      "ague": 6185,
      "Ġrestrict": 6186,
      "ansion": 6187,
      "Ġaccompl": 6188,
      "ĠWork": 6189,
      "Ġfoss": 6190,
      "Ġpictures": 6191,
      "Ġattacks": 6192,
      "Ġtips": 6193,
      "Ġdomain": 6194,
      "ensus": 6195,
      "Ġinteractions": 6196,
      "Ġinner": 6197,
      "Ġsnow": 6198,
      "Ġrein": 6199,
      "Ġwire": 6200,
      "ĠInformation": 6201,
      "Ġnutrients": 6202,
      "97": 6203,
      "inity": 6204,
      "Ġelectron": 6205,
      "Get": 6206,
      "rates": 6207,
      "bert": 6208,
      "Col": 6209,
      "OC": 6210,
      "Ġscre": 6211,
      "Ġclaims": 6212,
      "Ġinterview": 6213,
      "Ġproof": 6214,
      "umin": 6215,
      "Ġscholars": 6216,
      "Ġsin": 6217,
      "Ġfruits": 6218,
      "Ġtro": 6219,
      "lib": 6220,
      "ĠLike": 6221,
      "acts": 6222,
      "Ġlies": 6223,
      "arant": 6224,
      "Ġrural": 6225,
      "Ġwaves": 6226,
      "Ġmoist": 6227,
      "-time": 6228,
      "Ġprove": 6229,
      "_time": 6230,
      "Ġamb": 6231,
      "pers": 6232,
      "Val": 6233,
      "ka": 6234,
      "Ġlatest": 6235,
      "icious": 6236,
      "Ġperman": 6237,
      "Ġregularly": 6238,
      "crib": 6239,
      "dden": 6240,
      "Ġmillions": 6241,
      "Ġhappy": 6242,
      "rian": 6243,
      "ĠMass": 6244,
      "Ġpromoting": 6245,
      "Ġdomestic": 6246,
      "Ġderived": 6247,
      "eal": 6248,
      "ĠForm": 6249,
      "Ġappearance": 6250,
      "Ġtrial": 6251,
      "Ġdistingu": 6252,
      "1998": 6253,
      "Ġfold": 6254,
      "-of": 6255,
      "ĠControl": 6256,
      "Ġagricultural": 6257,
      "Ġsettle": 6258,
      "Ġuniverse": 6259,
      "Ġwasn": 6260,
      "ĠâĢ¢": 6261,
      "raining": 6262,
      "Ġtun": 6263,
      "-H": 6264,
      "top": 6265,
      "Ġapparent": 6266,
      "Ġcalls": 6267,
      "ĠJer": 6268,
      "UL": 6269,
      "Ġdriving": 6270,
      "Äģ": 6271,
      "Ġlargely": 6272,
      "den": 6273,
      "Ġaccel": 6274,
      "olicy": 6275,
      "Ġprofessor": 6276,
      "ĠAP": 6277,
      "ifications": 6278,
      "ĠBible": 6279,
      "Ġrecognized": 6280,
      "ĠMath": 6281,
      "Ġhaz": 6282,
      "herent": 6283,
      "ĠGroup": 6284,
      "Ġoverl": 6285,
      "Ġwalls": 6286,
      "_ch": 6287,
      "Ġemergency": 6288,
      "Ġmoral": 6289,
      "kes": 6290,
      "ĠMem": 6291,
      "Ġfab": 6292,
      "Ġpure": 6293,
      "rack": 6294,
      "Ġprogramming": 6295,
      "_j": 6296,
      "ns": 6297,
      "\\xb": 6298,
      "Ġnoise": 6299,
      "Ġdrink": 6300,
      "ĠRemember": 6301,
      "ĠĠĠĠĠĠĠĠĠ": 6302,
      "ĠFranc": 6303,
      "gency": 6304,
      "Ġhidden": 6305,
      "Ġcalculate": 6306,
      "Ġfacilities": 6307,
      "params": 6308,
      "Ġremaining": 6309,
      "Ġastr": 6310,
      "Ġentirely": 6311,
      "Ġvisible": 6312,
      "Ġcollaboration": 6313,
      "ĠMedical": 6314,
      "ĠÂł": 6315,
      "perty": 6316,
      "Ġdedicated": 6317,
      "Ġaxis": 6318,
      "Ġvirtual": 6319,
      "Ġjoin": 6320,
      "_T": 6321,
      "ront": 6322,
      "mas": 6323,
      "Ġwife": 6324,
      "Read": 6325,
      "Ġsensitive": 6326,
      "Ġvaccine": 6327,
      "ĠMedicine": 6328,
      "ĠLeg": 6329,
      "Ġeast": 6330,
      "Ġpoet": 6331,
      "Ġstret": 6332,
      "ĠAI": 6333,
      "Ġsudden": 6334,
      "Ġsubs": 6335,
      "oxide": 6336,
      "rolog": 6337,
      "Ġmessages": 6338,
      ".assertEqual": 6339,
      "Ġprotocol": 6340,
      "ĠVirgin": 6341,
      "âĢĿĊ": 6342,
      "Ġprepare": 6343,
      "win": 6344,
      "ĠMil": 6345,
      "Ġfoundation": 6346,
      "ĠBook": 6347,
      "Ġappreciate": 6348,
      "Ġresponses": 6349,
      "Ġlisten": 6350,
      "istan": 6351,
      "ĠAtl": 6352,
      "Ġdiscipl": 6353,
      "Ġcrops": 6354,
      "cules": 6355,
      "Ġpersist": 6356,
      "omic": 6357,
      "Ġera": 6358,
      "Ġstock": 6359,
      "Ġwait": 6360,
      "Ġsignals": 6361,
      "Ġarmy": 6362,
      "Ġdistributed": 6363,
      "Ġstem": 6364,
      "ĠBer": 6365,
      "Ġsell": 6366,
      "lines": 6367,
      "ĠJud": 6368,
      "display": 6369,
      "Ġexperiments": 6370,
      "ĠMet": 6371,
      ".de": 6372,
      "band": 6373,
      "Ġfro": 6374,
      "ditional": 6375,
      "96": 6376,
      "Ġsession": 6377,
      "Ġswitch": 6378,
      "Ġlose": 6379,
      "DC": 6380,
      "Ġgirls": 6381,
      "orrow": 6382,
      "Ġshift": 6383,
      "ĠÐ": 6384,
      "sub": 6385,
      "Ġcouple": 6386,
      "Ġtexts": 6387,
      "Ġancest": 6388,
      "-day": 6389,
      "Ġscore": 6390,
      "ĠConst": 6391,
      "Ġmanif": 6392,
      "ceived": 6393,
      "Ġremark": 6394,
      "Ġacknow": 6395,
      "ĠIr": 6396,
      "Ġtested": 6397,
      "86": 6398,
      "Ġ(\"": 6399,
      "Ġgreatest": 6400,
      "Ġrepresented": 6401,
      "']Ċ": 6402,
      "create": 6403,
      "Ġmetab": 6404,
      "Ġspeaking": 6405,
      "Ġfunctional": 6406,
      "Ġoral": 6407,
      "Ġacts": 6408,
      "Ġgrown": 6409,
      "-F": 6410,
      "Ġunknown": 6411,
      "Ġstages": 6412,
      "itc": 6413,
      "Ġoffering": 6414,
      "Ġleadership": 6415,
      "Ġsupporting": 6416,
      "ĠDiff": 6417,
      "Ġcircumstances": 6418,
      "Ġintellect": 6419,
      "Ġshif": 6420,
      "Ġrecovery": 6421,
      "Ġportion": 6422,
      "inates": 6423,
      "ĠNASA": 6424,
      "Ġshel": 6425,
      "================": 6426,
      "ĠKeep": 6427,
      "Ġfif": 6428,
      "ĠNews": 6429,
      "Ġhundreds": 6430,
      "ki": 6431,
      "Ġweap": 6432,
      "Ġobst": 6433,
      "Ġbehaviors": 6434,
      "ĠPacific": 6435,
      "Ġintroduction": 6436,
      ".cl": 6437,
      "Ġneighbor": 6438,
      "Ġbill": 6439,
      "Ġdecide": 6440,
      "ĠRights": 6441,
      "Ġfeedback": 6442,
      "Ġce": 6443,
      "dered": 6444,
      "Ġskill": 6445,
      "ĠSum": 6446,
      "Ġwear": 6447,
      "Ġunderstood": 6448,
      "Ġkm": 6449,
      "Ġreturns": 6450,
      "urns": 6451,
      "Ġpaid": 6452,
      "icon": 6453,
      "ogether": 6454,
      "_cl": 6455,
      "Ġmac": 6456,
      "Ġpersons": 6457,
      "zym": 6458,
      "$\\": 6459,
      "alls": 6460,
      "SA": 6461,
      "_i": 6462,
      "oto": 6463,
      "rc": 6464,
      "van": 6465,
      "ĠDise": 6466,
      "Ġdecrease": 6467,
      "Ġhunt": 6468,
      "Ġfailed": 6469,
      "Ġadequ": 6470,
      "ĠCommon": 6471,
      "ĠTreat": 6472,
      "rays": 6473,
      "Ġtells": 6474,
      "Ġagriculture": 6475,
      "Ġfloor": 6476,
      "ĠSmith": 6477,
      "Ġnaturally": 6478,
      "Ġexplains": 6479,
      "ĠAp": 6480,
      "Ġcorpor": 6481,
      "Ġequivalent": 6482,
      "ĠWomen": 6483,
      "esh": 6484,
      "Ġtouch": 6485,
      "Ġconfidence": 6486,
      "ĠSte": 6487,
      "Ġindeed": 6488,
      "annels": 6489,
      "esting": 6490,
      "Ġamazing": 6491,
      "Most": 6492,
      "150": 6493,
      "Ġemployees": 6494,
      "Ġcomprehensive": 6495,
      "ĠFoundation": 6496,
      "ĠExper": 6497,
      "Ġwants": 6498,
      "Ġcloud": 6499,
      "âĪĴ": 6500,
      "Ġerrors": 6501,
      "riers": 6502,
      "Ġsuffering": 6503,
      "Ġobservations": 6504,
      "Ġphr": 6505,
      "Ġlots": 6506,
      "Ġdut": 6507,
      "-Ċ": 6508,
      "rants": 6509,
      "Ġvel": 6510,
      "expected": 6511,
      "ĠStudies": 6512,
      "Do": 6513,
      "Ġvs": 6514,
      "ĠSaf": 6515,
      "AA": 6516,
      "sembly": 6517,
      "ĠCare": 6518,
      "Ġhabitat": 6519,
      "Be": 6520,
      "Go": 6521,
      "Ġsubstance": 6522,
      "Ġarguments": 6523,
      "Ġcircle": 6524,
      "Ġharv": 6525,
      "aud": 6526,
      "Ġ{'": 6527,
      "mic": 6528,
      "Ġimmun": 6529,
      "Ġupdate": 6530,
      "ĠEmp": 6531,
      "Ġlimits": 6532,
      "Ġcareful": 6533,
      "ĠWhe": 6534,
      "Ġphysics": 6535,
      "Ġmechanisms": 6536,
      "ributes": 6537,
      "orous": 6538,
      "ĠCommission": 6539,
      "Rec": 6540,
      "Ġprotected": 6541,
      "Ġreform": 6542,
      "ĠPsych": 6543,
      "Ġsuccessfully": 6544,
      "inet": 6545,
      "ĠStep": 6546,
      "reet": 6547,
      "Ġkil": 6548,
      "Ġgal": 6549,
      "itudes": 6550,
      "ocratic": 6551,
      "ĠArmy": 6552,
      "Ġrail": 6553,
      "Ġopening": 6554,
      "rip": 6555,
      "agers": 6556,
      "ĠRussian": 6557,
      ".F": 6558,
      "Ġmassive": 6559,
      "Ġmobile": 6560,
      "sv": 6561,
      "Ġpil": 6562,
      "Ġconcerned": 6563,
      "ĠDesign": 6564,
      "App": 6565,
      "Ġ!=": 6566,
      "ãģ": 6567,
      "CL": 6568,
      "Ġcatch": 6569,
      "Ġcars": 6570,
      "Ġpolice": 6571,
      "Ġdesired": 6572,
      "-sh": 6573,
      "Ġdoi": 6574,
      "Ġshell": 6575,
      "Ġloved": 6576,
      "ĠRobert": 6577,
      "Ġpark": 6578,
      "Ġaf": 6579,
      "oted": 6580,
      "Ġindu": 6581,
      "ini": 6582,
      "alpha": 6583,
      "Ġprompt": 6584,
      "organ": 6585,
      "resent": 6586,
      "Ġrelax": 6587,
      "ads": 6588,
      "Ġadopt": 6589,
      "Ġinformed": 6590,
      "Ġrig": 6591,
      "imer": 6592,
      "/m": 6593,
      "Ġthread": 6594,
      "Ġcutting": 6595,
      "ĠKey": 6596,
      "ĠEqu": 6597,
      "Ġexpressed": 6598,
      "item": 6599,
      "pre": 6600,
      "ĠFree": 6601,
      "Ġmixed": 6602,
      "lers": 6603,
      "Ġcategory": 6604,
      "Ġappeared": 6605,
      "osc": 6606,
      "Des": 6607,
      "mathrm": 6608,
      "Ġmagnetic": 6609,
      "Ġexpensive": 6610,
      "ato": 6611,
      "Ġstrengthen": 6612,
      "Ġaccounts": 6613,
      "Ġsen": 6614,
      "Ġpip": 6615,
      "Ġresidents": 6616,
      "Ġlocations": 6617,
      "Ġdescribes": 6618,
      "Ġharmful": 6619,
      "1980": 6620,
      "pathy": 6621,
      "Ġcommunicate": 6622,
      "Ġextended": 6623,
      "Ġassistance": 6624,
      "Ġelectronic": 6625,
      "Ġaccuracy": 6626,
      "Ġsatell": 6627,
      "Ġmanip": 6628,
      "87": 6629,
      "Ġcrisis": 6630,
      "cycl": 6631,
      "Ġresolution": 6632,
      "Ġproducing": 6633,
      "eer": 6634,
      "Ġmarked": 6635,
      "Ġstruggle": 6636,
      "Ġparameter": 6637,
      "ĠPers": 6638,
      "Ġsurvival": 6639,
      "Ġcardi": 6640,
      "ĠSea": 6641,
      "93": 6642,
      "erals": 6643,
      "ĠDiv": 6644,
      "icate": 6645,
      "Ġimpossible": 6646,
      "_F": 6647,
      "update": 6648,
      "Ġtow": 6649,
      "alian": 6650,
      "ĠImagine": 6651,
      "ircraft": 6652,
      "Ġhorse": 6653,
      "Ġvehicles": 6654,
      "Ġhero": 6655,
      "Ġcircuit": 6656,
      "Ġcomposition": 6657,
      "Ġboost": 6658,
      "Ġcoff": 6659,
      "Ġfalse": 6660,
      "Ġinches": 6661,
      "Ġperspectives": 6662,
      "Ġinnovative": 6663,
      "Ġofficials": 6664,
      "amma": 6665,
      "aser": 6666,
      "estyle": 6667,
      "ĠRussia": 6668,
      "ĠReview": 6669,
      "Ġrelation": 6670,
      "open": 6671,
      "gra": 6672,
      "ascular": 6673,
      "Ġempt": 6674,
      "Ġbudget": 6675,
      "Ġpig": 6676,
      "=self": 6677,
      "oom": 6678,
      "Ġliver": 6679,
      "Ġsed": 6680,
      "ocab": 6681,
      "Ġaudience": 6682,
      "Ġfle": 6683,
      "Ġallerg": 6684,
      "Ġthemes": 6685,
      "ĠFin": 6686,
      "ota": 6687,
      "Ġstated": 6688,
      "Ġsan": 6689,
      "Ġchart": 6690,
      "Ġingredients": 6691,
      "ĠChe": 6692,
      "ĠGood": 6693,
      "ĠCarol": 6694,
      "Ġcorresponding": 6695,
      "ĠNature": 6696,
      "riting": 6697,
      "Ġmachines": 6698,
      "Have": 6699,
      "Ġnarrow": 6700,
      ".L": 6701,
      "Ġbrown": 6702,
      "atal": 6703,
      "ĠScient": 6704,
      "Or": 6705,
      "Ġindicates": 6706,
      "ocument": 6707,
      "Ġrepeated": 6708,
      "ĠMont": 6709,
      "ĠVis": 6710,
      "erving": 6711,
      "Ġasking": 6712,
      "ĠLicense": 6713,
      "Ġintervention": 6714,
      "Ġopinion": 6715,
      "84": 6716,
      "Ġahead": 6717,
      "\\xd": 6718,
      "Ġunless": 6719,
      "ishes": 6720,
      "ĠJose": 6721,
      "ĠSec": 6722,
      "Ġmissing": 6723,
      "ĠFlor": 6724,
      "Ġseeing": 6725,
      "Ġholds": 6726,
      "Ġevaluation": 6727,
      "ĠStr": 6728,
      "1997": 6729,
      "Ġturns": 6730,
      "ashion": 6731,
      "erated": 6732,
      "ĠNor": 6733,
      "Ġsentence": 6734,
      "ĠTw": 6735,
      "Ġarchitecture": 6736,
      "Ġmathematics": 6737,
      "Ġgun": 6738,
      "\")ĊĊ": 6739,
      "ĠLake": 6740,
      "Ġpump": 6741,
      "_col": 6742,
      "Ġafford": 6743,
      "Ġtit": 6744,
      "uma": 6745,
      "Ġmedications": 6746,
      "Ġsick": 6747,
      "Ġguidance": 6748,
      "Ġquantum": 6749,
      "Ġconventional": 6750,
      "Ġdynamics": 6751,
      "Ġmanaged": 6752,
      "Ġpositions": 6753,
      "Ġfunding": 6754,
      "Ġaccepted": 6755,
      "Ġsuc": 6756,
      "Ġfloat": 6757,
      "ipping": 6758,
      "-R": 6759,
      "ĠCharles": 6760,
      "irt": 6761,
      "Ġmaintenance": 6762,
      "EP": 6763,
      ".R": 6764,
      "Ġestimate": 6765,
      "ĠProv": 6766,
      "Ġpull": 6767,
      "71": 6768,
      "Ġregulations": 6769,
      "Ġrub": 6770,
      "(),": 6771,
      "Ġdemonstrate": 6772,
      "Ġcritic": 6773,
      "Ġmathematical": 6774,
      "Ġprev": 6775,
      "Ġcoun": 6776,
      "Ġtf": 6777,
      "Ġcurriculum": 6778,
      "Ġmatters": 6779,
      "_key": 6780,
      "ĠConn": 6781,
      "Ġsecondary": 6782,
      "Ġinvent": 6783,
      "Ġtoler": 6784,
      "Ġsweet": 6785,
      "Ġplayers": 6786,
      "Ġserves": 6787,
      "-on": 6788,
      "Ġslowly": 6789,
      "ĠCatholic": 6790,
      "ĠType": 6791,
      "Ġachieved": 6792,
      "Ġinstructions": 6793,
      "ye": 6794,
      "Ġmolecules": 6795,
      "kin": 6796,
      "Ġinject": 6797,
      "ultane": 6798,
      "ada": 6799,
      "body": 6800,
      "orter": 6801,
      "Ġmaps": 6802,
      "\\xe": 6803,
      "Ġages": 6804,
      "Ġ.Ċ": 6805,
      "Ġshapes": 6806,
      "Ġrespectively": 6807,
      "Ġblocks": 6808,
      "BN": 6809,
      "normal": 6810,
      "Ġgrid": 6811,
      "Ġpolitics": 6812,
      "MP": 6813,
      "Ġlatter": 6814,
      "ĠEnvironmental": 6815,
      "Ġ['": 6816,
      "Ġwhereas": 6817,
      "Ġwestern": 6818,
      "Ġsoldiers": 6819,
      "ĠPC": 6820,
      "words": 6821,
      "During": 6822,
      "/p": 6823,
      "opic": 6824,
      ".html": 6825,
      "ĠAnn": 6826,
      "ĠBet": 6827,
      "Ġpregnancy": 6828,
      "umps": 6829,
      "Ġwalking": 6830,
      "ĠHenry": 6831,
      "Ġsky": 6832,
      "obs": 6833,
      "hemical": 6834,
      "ĠStudy": 6835,
      "erial": 6836,
      "includ": 6837,
      "Ġsplit": 6838,
      "np": 6839,
      "'),Ċ": 6840,
      "ĠMain": 6841,
      "ua": 6842,
      "Ġplate": 6843,
      "Ġspecified": 6844,
      "Ġdoctors": 6845,
      "Ġbrand": 6846,
      ")\\": 6847,
      "soft": 6848,
      "Ġusage": 6849,
      "ĠExt": 6850,
      "Of": 6851,
      "ctic": 6852,
      "escription": 6853,
      "onomy": 6854,
      "Ġprison": 6855,
      "Ġnearby": 6856,
      "Ġparallel": 6857,
      "dule": 6858,
      "Ġimper": 6859,
      "-T": 6860,
      "Ġopposite": 6861,
      "Ġevaluate": 6862,
      "zen": 6863,
      "_D": 6864,
      "ĠSometimes": 6865,
      "Ġmodule": 6866,
      "ester": 6867,
      "Ġtwice": 6868,
      "Ġprem": 6869,
      "Id": 6870,
      "Ġpossibly": 6871,
      "Ġcapture": 6872,
      "ĠInv": 6873,
      "Ġcategories": 6874,
      "Ġrecip": 6875,
      "num": 6876,
      "Ġlisted": 6877,
      "Ġbeauty": 6878,
      "ĠAcc": 6879,
      "python": 6880,
      "begin": 6881,
      "Ġprevention": 6882,
      "Ġrecognition": 6883,
      "ĠCompany": 6884,
      "Ġtransportation": 6885,
      "Ġopened": 6886,
      "ĠIP": 6887,
      "keys": 6888,
      "_ex": 6889,
      "1970": 6890,
      "Ġabund": 6891,
      "2021": 6892,
      "-pro": 6893,
      "Ġrevealed": 6894,
      "elta": 6895,
      "Ġimprovement": 6896,
      "icing": 6897,
      "Ġknowing": 6898,
      "Ġchannel": 6899,
      "Ġreject": 6900,
      "Ġconsidering": 6901,
      "Ġnurs": 6902,
      "ĠOpen": 6903,
      "Ġcrim": 6904,
      "Ġimplications": 6905,
      "Ġchief": 6906,
      "ĠMult": 6907,
      "Ġwildlife": 6908,
      "but": 6909,
      "umes": 6910,
      "Ġcrop": 6911,
      "Ġwitness": 6912,
      "Ġpowers": 6913,
      "ocity": 6914,
      "Ġinnovation": 6915,
      "ĠSl": 6916,
      "Ġcooking": 6917,
      "Ġremote": 6918,
      "Ġwors": 6919,
      "Ġsupports": 6920,
      "west": 6921,
      "Ġguess": 6922,
      ".write": 6923,
      "TP": 6924,
      "Ġhouses": 6925,
      "Ġperm": 6926,
      "1996": 6927,
      "icking": 6928,
      "Ġdynamic": 6929,
      "Ġdefic": 6930,
      "itivity": 6931,
      "ango": 6932,
      "Ġpossibility": 6933,
      "Ġstick": 6934,
      "ĠNote": 6935,
      "chers": 6936,
      "-the": 6937,
      "$ĊĊ": 6938,
      "92": 6939,
      "agues": 6940,
      "{}": 6941,
      "Ġdesigns": 6942,
      "Ġphilosophy": 6943,
      "Ġrecycl": 6944,
      "ĠOnly": 6945,
      "gent": 6946,
      "Ġdoor": 6947,
      "Ġadopted": 6948,
      "ĠMo": 6949,
      "lamb": 6950,
      "-old": 6951,
      "hist": 6952,
      "Ã¼": 6953,
      "Ġagreement": 6954,
      "(a": 6955,
      "Ġinflammation": 6956,
      "Ġmonitor": 6957,
      "actions": 6958,
      "Ġcompare": 6959,
      "Ġarms": 6960,
      "Ġstronger": 6961,
      "Ġbot": 6962,
      "ĠOx": 6963,
      "ĠSov": 6964,
      "Ġplane": 6965,
      "Ġtransmission": 6966,
      "Ġbehaviour": 6967,
      "Ġtrends": 6968,
      "Ġcomments": 6969,
      "Ġvillage": 6970,
      "120": 6971,
      "rd": 6972,
      "isk": 6973,
      "83": 6974,
      "displaystyle": 6975,
      "Ġnormally": 6976,
      "ĠLibrary": 6977,
      "Ob": 6978,
      "Ġbreath": 6979,
      "Ġmanufacturing": 6980,
      "sum": 6981,
      "Ġuncertain": 6982,
      "fortunately": 6983,
      ".re": 6984,
      "Once": 6985,
      "ĠGlobal": 6986,
      "Ġcamera": 6987,
      "Ġleaf": 6988,
      "Ġ^": 6989,
      "94": 6990,
      "Ġphotos": 6991,
      "Ġagencies": 6992,
      "Ġhypothes": 6993,
      "Ġmechanism": 6994,
      "race": 6995,
      "abel": 6996,
      "ĠBro": 6997,
      "Ġhabits": 6998,
      "Ġparticipate": 6999,
      "ĠCreat": 7000,
      "ĠPM": 7001,
      "Ġforests": 7002,
      "Ġstands": 7003,
      "Ġment": 7004,
      "Ġartificial": 7005,
      "ĠWil": 7006,
      "ĠNon": 7007,
      "reshold": 7008,
      "Ġboundaries": 7009,
      "Ġorganized": 7010,
      "Ġreactions": 7011,
      "Ġexploration": 7012,
      "Ġagreed": 7013,
      "Ġcart": 7014,
      "Before": 7015,
      "Ġstable": 7016,
      "Dr": 7017,
      "Ġcomparison": 7018,
      "ĠWho": 7019,
      "Ġvoltage": 7020,
      "Ġoptimal": 7021,
      "Ġaimed": 7022,
      "ao": 7023,
      "ĠBre": 7024,
      "ĠWild": 7025,
      "atric": 7026,
      "Ġassume": 7027,
      "DP": 7028,
      "Ġalle": 7029,
      "ĠLouis": 7030,
      "aria": 7031,
      "abs": 7032,
      "Ġcustomers": 7033,
      "ĠFind": 7034,
      "ptions": 7035,
      "Ã¶": 7036,
      "Ġflight": 7037,
      "Ġtherap": 7038,
      "asive": 7039,
      "Ġreader": 7040,
      "ĠMag": 7041,
      "Ġath": 7042,
      "Ġplayer": 7043,
      "Ġindigenous": 7044,
      "Ġtaste": 7045,
      "anda": 7046,
      "sem": 7047,
      "Ġextensive": 7048,
      "Ġdemonstrated": 7049,
      "Ġdeaths": 7050,
      "Ġmoon": 7051,
      "Ġshop": 7052,
      "Ġregul": 7053,
      "ĠExp": 7054,
      "osph": 7055,
      "Ġthorough": 7056,
      "Ġdin": 7057,
      "Ġarrived": 7058,
      "Ġbroken": 7059,
      "Ġgall": 7060,
      "otes": 7061,
      "section": 7062,
      "ipal": 7063,
      "Ġsuffer": 7064,
      "Other": 7065,
      "Ġinstrument": 7066,
      "Ġdirector": 7067,
      "Ġarrange": 7068,
      "Ġattend": 7069,
      "Since": 7070,
      "}^{": 7071,
      "istical": 7072,
      "Figure": 7073,
      "Ġble": 7074,
      "ulin": 7075,
      "Ġsyndrome": 7076,
      "ĠAbout": 7077,
      "ĠLong": 7078,
      "ga": 7079,
      "ervices": 7080,
      "Ġgained": 7081,
      "Ġdepict": 7082,
      "Ġthanks": 7083,
      "Ġcourses": 7084,
      "ailed": 7085,
      "Ġnecessarily": 7086,
      "lambda": 7087,
      "pring": 7088,
      "81": 7089,
      "Ġinjuries": 7090,
      "Ġaddressing": 7091,
      "ena": 7092,
      "Ġwish": 7093,
      "Ġstanding": 7094,
      "Ġcompetition": 7095,
      "_sc": 7096,
      "ĠIdent": 7097,
      "Ġbattery": 7098,
      "ĠModel": 7099,
      "urd": 7100,
      "Ġstrict": 7101,
      "Ġconsumers": 7102,
      "Ġmuseum": 7103,
      "oral": 7104,
      "ĠAS": 7105,
      "ropical": 7106,
      "Ġorient": 7107,
      "Ġexercises": 7108,
      "Ġmountain": 7109,
      "Ġaircraft": 7110,
      "$.": 7111,
      "ĠRad": 7112,
      "ĠFinally": 7113,
      "ĠSimilarly": 7114,
      "Ġtur": 7115,
      "Ġcorrel": 7116,
      "Ġmarine": 7117,
      "Ġdust": 7118,
      "ocracy": 7119,
      "orne": 7120,
      "Ġproduces": 7121,
      "Ġexplo": 7122,
      "1995": 7123,
      "ĠFederal": 7124,
      "ells": 7125,
      "ĠGold": 7126,
      "Ġinsert": 7127,
      ".v": 7128,
      "Ġemployed": 7129,
      "Ġwarming": 7130,
      "Ġauthent": 7131,
      "edy": 7132,
      "obj": 7133,
      "Ġoriginally": 7134,
      "Ġadministration": 7135,
      "See": 7136,
      "Ġinfected": 7137,
      "Ed": 7138,
      "Ġends": 7139,
      "ðŁ": 7140,
      "/c": 7141,
      "Ġscene": 7142,
      "ĠYet": 7143,
      "Ġsupplement": 7144,
      "Ġworse": 7145,
      "olar": 7146,
      "ĠTim": 7147,
      "Ġwriter": 7148,
      "Ġethnic": 7149,
      "Ġbeneficial": 7150,
      "ala": 7151,
      "Ġflag": 7152,
      "Ġmarriage": 7153,
      "-cent": 7154,
      "Ġhydrogen": 7155,
      "Ġexamining": 7156,
      "=(": 7157,
      "Ġshut": 7158,
      "pet": 7159,
      "Ġdecline": 7160,
      "Ġeveryday": 7161,
      "Ġbones": 7162,
      "Ġfacing": 7163,
      "Ġdiscussions": 7164,
      "Ġsole": 7165,
      "ĠDespite": 7166,
      "-be": 7167,
      "ĠIntroduction": 7168,
      "reme": 7169,
      "allow": 7170,
      "Ġmeasurements": 7171,
      "fit": 7172,
      "pread": 7173,
      "Ġregist": 7174,
      "ĠThose": 7175,
      "Ġexpansion": 7176,
      "sqrt": 7177,
      "ĠLanguage": 7178,
      "ĠEth": 7179,
      "conf": 7180,
      "ĠCanadian": 7181,
      "Ġfertil": 7182,
      "Ġpackage": 7183,
      "such": 7184,
      "Ġpsychological": 7185,
      "Ġalign": 7186,
      "Ġ)ĊĊ": 7187,
      "ette": 7188,
      "Ġcong": 7189,
      "Ġsections": 7190,
      "Ġfell": 7191,
      "ĠPub": 7192,
      "Ġfav": 7193,
      "Ġobjective": 7194,
      "Ġfract": 7195,
      "phone": 7196,
      "Ġseconds": 7197,
      "Ġinhab": 7198,
      "Ġmedication": 7199,
      "ĠHome": 7200,
      "Ġcomplexity": 7201,
      "itative": 7202,
      "Ġnumpy": 7203,
      "Ġabilities": 7204,
      "Ġinstitution": 7205,
      "Ġsurvive": 7206,
      "throp": 7207,
      "ĠCheck": 7208,
      "]]": 7209,
      "Test": 7210,
      "parse": 7211,
      "Ġcond": 7212,
      "Ġfewer": 7213,
      "ĠDan": 7214,
      "hedule": 7215,
      "Ġstability": 7216,
      "ĠKnow": 7217,
      "\\xa": 7218,
      "ourse": 7219,
      "ĠNative": 7220,
      "gu": 7221,
      "ĠOh": 7222,
      "Ġear": 7223,
      "ĠCur": 7224,
      "Ġenables": 7225,
      "Ġdental": 7226,
      "Ġcompr": 7227,
      "Ġaccum": 7228,
      "iology": 7229,
      "Ġdepos": 7230,
      "Ġinequ": 7231,
      "athe": 7232,
      "ona": 7233,
      ".B": 7234,
      "Ġcreativity": 7235,
      "Stud": 7236,
      "omach": 7237,
      "ĠMethod": 7238,
      "82": 7239,
      "\\\\": 7240,
      "Ġforget": 7241,
      "Ġexamination": 7242,
      "len": 7243,
      "ĠLand": 7244,
      "aked": 7245,
      "Ġnumer": 7246,
      "aming": 7247,
      "operation": 7248,
      "Ġcomplicated": 7249,
      "ync": 7250,
      "Ġgrew": 7251,
      "Ġdesire": 7252,
      "elihood": 7253,
      "Ġaqu": 7254,
      "Ġbio": 7255,
      "Ġmeasurement": 7256,
      "Ġchildhood": 7257,
      "ontal": 7258,
      "ĠTor": 7259,
      "axis": 7260,
      "Ġrely": 7261,
      "Ġengagement": 7262,
      "=[": 7263,
      "'d": 7264,
      "</": 7265,
      "ocket": 7266,
      "Ġtheories": 7267,
      "Ġsod": 7268,
      ".is": 7269,
      "Ġguarant": 7270,
      "Ġfiction": 7271,
      "Ġsteel": 7272,
      "hav": 7273,
      "Set": 7274,
      "itter": 7275,
      "Ã³": 7276,
      "Ġmamm": 7277,
      "ĠGal": 7278,
      "omial": 7279,
      "Ġreplaced": 7280,
      "Ġrect": 7281,
      "zed": 7282,
      "-ch": 7283,
      "CS": 7284,
      "ĠCy": 7285,
      "):ĊĊ": 7286,
      "burg": 7287,
      "usiness": 7288,
      "Ġanalyze": 7289,
      "Ġimmediate": 7290,
      "Ref": 7291,
      "-level": 7292,
      "Ġmanaging": 7293,
      "Ġfly": 7294,
      "Ġdifficulty": 7295,
      "ĠTem": 7296,
      "uted": 7297,
      "Ġmarkets": 7298,
      "ĠVirginia": 7299,
      "Ġcoffee": 7300,
      "Ġsimultane": 7301,
      "}_{": 7302,
      ".shape": 7303,
      "Ġske": 7304,
      "olester": 7305,
      "Ġpresentation": 7306,
      "ĠStat": 7307,
      "Ġgreatly": 7308,
      "Ġring": 7309,
      "Ġdebate": 7310,
      ".data": 7311,
      "rh": 7312,
      "Ġverb": 7313,
      "world": 7314,
      "ĠConstitution": 7315,
      "inction": 7316,
      "Ġdetection": 7317,
      "-free": 7318,
      "hesis": 7319,
      "Ġinspired": 7320,
      "Ġbear": 7321,
      "::": 7322,
      "Ġwhatever": 7323,
      "Ġdrawn": 7324,
      ".join": 7325,
      "Ġtu": 7326,
      "Ġestimates": 7327,
      "Ġaccident": 7328,
      "ĠSym": 7329,
      "Ġattached": 7330,
      "liament": 7331,
      "ĠEst": 7332,
      "OP": 7333,
      "ĠFrank": 7334,
      "Ġcryst": 7335,
      "Ġinterf": 7336,
      "QL": 7337,
      "how": 7338,
      "pass": 7339,
      "Ġbrings": 7340,
      "Ġpercentage": 7341,
      "mm": 7342,
      "rary": 7343,
      "opyright": 7344,
      "ĠPeter": 7345,
      "Ġpreval": 7346,
      "_model": 7347,
      "itt": 7348,
      "_index": 7349,
      "ĠLabor": 7350,
      "ĠAnalysis": 7351,
      "RA": 7352,
      "olit": 7353,
      "ĠSar": 7354,
      "ella": 7355,
      "ĠAmong": 7356,
      "ĠOffice": 7357,
      "MA": 7358,
      "Ġseemed": 7359,
      "Ġdelay": 7360,
      "Ġdivision": 7361,
      "esity": 7362,
      "ĠâĨ": 7363,
      "erior": 7364,
      "uts": 7365,
      "hyth": 7366,
      "lets": 7367,
      "Ġimplemented": 7368,
      "ivery": 7369,
      "91": 7370,
      "Ġampl": 7371,
      "Ġfiber": 7372,
      "ĠCommit": 7373,
      "Ġcorn": 7374,
      "Ġruns": 7375,
      "Ġfighting": 7376,
      "Ġunus": 7377,
      ".name": 7378,
      "rus": 7379,
      "Ġinstalled": 7380,
      "Ġintake": 7381,
      "ĠAdv": 7382,
      "arity": 7383,
      "Ġdistrict": 7384,
      "1960": 7385,
      "Ġcontained": 7386,
      "Ð¾": 7387,
      "ĠConsider": 7388,
      "Ġjson": 7389,
      "ikip": 7390,
      "_arg": 7391,
      "Ġenzym": 7392,
      "essions": 7393,
      "Ġintellectual": 7394,
      "tic": 7395,
      "Ġwidth": 7396,
      "Ġconvert": 7397,
      "Ġconversation": 7398,
      "Ġnone": 7399,
      "_by": 7400,
      "Ġtrained": 7401,
      "ĠNations": 7402,
      "olesterol": 7403,
      "Ð°": 7404,
      "rav": 7405,
      "claim": 7406,
      "Ġyounger": 7407,
      "Ġlogging": 7408,
      "ĠVict": 7409,
      "Ġauthorities": 7410,
      "Ġheritage": 7411,
      "Ġsucceed": 7412,
      "Ġexciting": 7413,
      "ĠColumb": 7414,
      "ï¿": 7415,
      "ometric": 7416,
      "Ġembed": 7417,
      "sts": 7418,
      "Ġempty": 7419,
      "Ġinstruments": 7420,
      "Ġalgorithms": 7421,
      "ĠRob": 7422,
      "Ġshaping": 7423,
      "Ġzone": 7424,
      "ittle": 7425,
      "rox": 7426,
      "Ġremind": 7427,
      "long": 7428,
      "Ġdoubt": 7429,
      "Ġsupplies": 7430,
      "Ġbroader": 7431,
      "default": 7432,
      "Ġagency": 7433,
      "Le": 7434,
      "ĠUSA": 7435,
      "ilter": 7436,
      "Ġinsurance": 7437,
      "BS": 7438,
      "ĠLu": 7439,
      "Ġvibr": 7440,
      "âĢĻd": 7441,
      "Ġbreathing": 7442,
      "ĠIll": 7443,
      "response": 7444,
      "rovers": 7445,
      "cher": 7446,
      "_test": 7447,
      "ĠAND": 7448,
      "Ġsurfaces": 7449,
      "Ġexplanation": 7450,
      "/b": 7451,
      "BT": 7452,
      "Ġcalculated": 7453,
      "ita": 7454,
      "ï¿½": 7455,
      "ĠBC": 7456,
      "han": 7457,
      "-and": 7458,
      "imensional": 7459,
      "ĠLib": 7460,
      "Over": 7461,
      "-ĊĊ": 7462,
      "(data": 7463,
      "ĠParis": 7464,
      "Ġdataset": 7465,
      "Ġtall": 7466,
      "Ġcards": 7467,
      "asts": 7468,
      "Ġhus": 7469,
      "Ġethical": 7470,
      "Ġspin": 7471,
      "parent": 7472,
      "ĠMathemat": 7473,
      "_info": 7474,
      "Ġcurve": 7475,
      "Ġplatforms": 7476,
      "isters": 7477,
      "orig": 7478,
      "Ġfostering": 7479,
      "hop": 7480,
      "Ġdelve": 7481,
      "ĠEnd": 7482,
      "agon": 7483,
      "Ġrealized": 7484,
      ".E": 7485,
      "ĠReport": 7486,
      "Ġeld": 7487,
      "atial": 7488,
      "Ġpainting": 7489,
      "ĠFlorida": 7490,
      "ĠSoviet": 7491,
      "Ġorganisms": 7492,
      "Ġoverw": 7493,
      "ployment": 7494,
      "Ġinterface": 7495,
      "Ġarts": 7496,
      "stone": 7497,
      "(r": 7498,
      "Ġlabels": 7499,
      "OW": 7500,
      "#Ċ": 7501,
      "heet": 7502,
      "rog": 7503,
      "Ġorg": 7504,
      "Ġstatistics": 7505,
      "just": 7506,
      "Up": 7507,
      "Ġexplicit": 7508,
      "rene": 7509,
      "ĠProfessor": 7510,
      "Ġvert": 7511,
      "Ġindustries": 7512,
      "Ġphotograph": 7513,
      "ventions": 7514,
      "Ġnegot": 7515,
      "Ġholding": 7516,
      "icide": 7517,
      "Ġwriters": 7518,
      "Ġbread": 7519,
      "itz": 7520,
      "Ġconcrete": 7521,
      "Ġsymbols": 7522,
      "ighter": 7523,
      "-making": 7524,
      "Ġinsects": 7525,
      "Ġadvantages": 7526,
      "Ġindependence": 7527,
      "):čĊ": 7528,
      "ĠNatural": 7529,
      "Ġsight": 7530,
      "Ġnarratives": 7531,
      "Ġplt": 7532,
      "Ġtroops": 7533,
      "Ġpand": 7534,
      "ibl": 7535,
      "IF": 7536,
      "Ġborder": 7537,
      "Ġcompounds": 7538,
      "ikipedia": 7539,
      "Ġlifestyle": 7540,
      "rine": 7541,
      "asty": 7542,
      "VID": 7543,
      "Ġoccasion": 7544,
      "ĠTer": 7545,
      "ĠRevolution": 7546,
      "Ġaccessible": 7547,
      "EE": 7548,
      "ora": 7549,
      "ĠColor": 7550,
      "ĠJoseph": 7551,
      "onents": 7552,
      "Ġreduces": 7553,
      "600": 7554,
      "ĠJe": 7555,
      "Ġconsumer": 7556,
      "Ġrid": 7557,
      "anches": 7558,
      "Ġtrip": 7559,
      "Ġreserv": 7560,
      "Ġtut": 7561,
      "Ġchrom": 7562,
      "ĠRome": 7563,
      "ĠCurrent": 7564,
      "Ġwilling": 7565,
      "Ġmyth": 7566,
      "lements": 7567,
      "iosity": 7568,
      "Par": 7569,
      "Time": 7570,
      "ĠStreet": 7571,
      "Ġcommitted": 7572,
      "dict": 7573,
      "gest": 7574,
      "ften": 7575,
      "Ġadministr": 7576,
      "Ġmeaningful": 7577,
      "Ġconven": 7578,
      "Ġparticipation": 7579,
      "\\right": 7580,
      "ersonal": 7581,
      "ataset": 7582,
      "Ġgone": 7583,
      "Ġsys": 7584,
      "ĠDig": 7585,
      "riend": 7586,
      "Ġstuff": 7587,
      "Ġturning": 7588,
      "Ġuniform": 7589,
      "NAME": 7590,
      ".\"ĊĊ": 7591,
      "ĠHaw": 7592,
      "ĠJul": 7593,
      "Ġsolving": 7594,
      "Ġunable": 7595,
      "https": 7596,
      "Ġinterpretation": 7597,
      "Ġpapers": 7598,
      "Ġcollective": 7599,
      "Ġpurchase": 7600,
      "ernel": 7601,
      "Note": 7602,
      "ocking": 7603,
      "Ġfunds": 7604,
      ".log": 7605,
      "Ġlaboratory": 7606,
      "Ġinsight": 7607,
      "ĠDoes": 7608,
      "Ġcolour": 7609,
      "Ġpermanent": 7610,
      "Ġroute": 7611,
      "Ġvac": 7612,
      "Ġemerging": 7613,
      "âĢĻ,": 7614,
      "Ġvessels": 7615,
      "Ġcorrectly": 7616,
      "zil": 7617,
      "Ġnewsp": 7618,
      "Ġresilience": 7619,
      "Ġfossil": 7620,
      "ĠFre": 7621,
      "Ġelectro": 7622,
      "ĠBefore": 7623,
      "Ġvulnerable": 7624,
      "initely": 7625,
      "Ġpron": 7626,
      "1994": 7627,
      "Ġdeeply": 7628,
      "ĠBal": 7629,
      "Ġcouldn": 7630,
      "kins": 7631,
      "Ġreliable": 7632,
      "Ġlic": 7633,
      "bridge": 7634,
      "redict": 7635,
      "Ġmoves": 7636,
      "ĠĠĠĠĠĠĠĠĊ": 7637,
      "Ġ[Ċ": 7638,
      "env": 7639,
      "Ġalter": 7640,
      "ĉĉĉ": 7641,
      "Ġwisdom": 7642,
      "Ġdiscrimination": 7643,
      "Ġreven": 7644,
      "Ġdecade": 7645,
      "asters": 7646,
      "Ġvote": 7647,
      "ĠChic": 7648,
      "Ġliterary": 7649,
      "Ġbatch": 7650,
      "TH": 7651,
      "host": 7652,
      "ĠAustralian": 7653,
      "Ġantibiot": 7654,
      "ĠSouthern": 7655,
      "Ġcriteria": 7656,
      "Ġintroduce": 7657,
      "Ġru": 7658,
      "Ġdealing": 7659,
      "Ġ;": 7660,
      "Ġspending": 7661,
      "Can": 7662,
      "Ġexpectations": 7663,
      "Ġgap": 7664,
      "oves": 7665,
      "ĠWindows": 7666,
      "Ġforth": 7667,
      "Ġcharacterized": 7668,
      "Ġcalcium": 7669,
      "ĠMax": 7670,
      "Ġdf": 7671,
      "Ġteams": 7672,
      "Ġfocuses": 7673,
      "ĠCa": 7674,
      "idespread": 7675,
      "-v": 7676,
      "}ĊĊ": 7677,
      "-E": 7678,
      "-G": 7679,
      "ĠCourse": 7680,
      "trans": 7681,
      "_cont": 7682,
      "Ġtrials": 7683,
      "Act": 7684,
      "ĠOcean": 7685,
      "Post": 7686,
      "Ġhole": 7687,
      "Ġsubstances": 7688,
      ".âĢĻ": 7689,
      "Ġcolleagues": 7690,
      "_e": 7691,
      "isp": 7692,
      "Ġcreatures": 7693,
      "Ġhousing": 7694,
      "hus": 7695,
      "img": 7696,
      "Ġlaunch": 7697,
      ".array": 7698,
      "irty": 7699,
      "Ġbutter": 7700,
      "Ġoperate": 7701,
      "Ġcomfortable": 7702,
      "Ġshad": 7703,
      "Ġhealing": 7704,
      "ĠAccess": 7705,
      "Ġpreparation": 7706,
      "Ġtrouble": 7707,
      "Last": 7708,
      "Ġcontrols": 7709,
      "Ġbeings": 7710,
      "ĠSystems": 7711,
      "Ġsummary": 7712,
      "Ġtechnological": 7713,
      "Ġinitially": 7714,
      "Ġintric": 7715,
      "Ġconfident": 7716,
      "Ġengaged": 7717,
      "Ġlistening": 7718,
      "onym": 7719,
      "Ġloop": 7720,
      "Ġacids": 7721,
      "Ġfabric": 7722,
      "ĠPan": 7723,
      "idity": 7724,
      "Ġtea": 7725,
      "Ġconstraint": 7726,
      "Ġlens": 7727,
      "_y": 7728,
      "Ġstomach": 7729,
      "Ġroutine": 7730,
      "utils": 7731,
      "Ġjoined": 7732,
      "Ġfoster": 7733,
      "Ġthereby": 7734,
      "edge": 7735,
      "ola": 7736,
      "cture": 7737,
      "Ġstyles": 7738,
      "merican": 7739,
      "jango": 7740,
      "Ġpassion": 7741,
      "800": 7742,
      "Ġintegration": 7743,
      "ibraries": 7744,
      "ilation": 7745,
      "Ġcrime": 7746,
      "ĠTre": 7747,
      "Ġsought": 7748,
      "Ġ''": 7749,
      "ĠSign": 7750,
      "Ġuniversity": 7751,
      "Ġbranch": 7752,
      "ĠItaly": 7753,
      "_set": 7754,
      "ĠMad": 7755,
      "ulary": 7756,
      "Ġthousand": 7757,
      "Ġwww": 7758,
      "Bl": 7759,
      "Ġrefuge": 7760,
      "times": 7761,
      "Ġsheet": 7762,
      "ailability": 7763,
      "Ġdimensions": 7764,
      "Ġexception": 7765,
      "Ġmolecular": 7766,
      "Ġforg": 7767,
      "Ġconstitution": 7768,
      "Ġlearners": 7769,
      "ano": 7770,
      "rint": 7771,
      "Ðµ": 7772,
      "Ġinterpre": 7773,
      "Ġdream": 7774,
      "ĠThink": 7775,
      "File": 7776,
      "ĠEmpire": 7777,
      "={": 7778,
      "appy": 7779,
      "ĠSing": 7780,
      "Ġfashion": 7781,
      "Ġnine": 7782,
      "Ġreward": 7783,
      "ĠTake": 7784,
      "ĠWhere": 7785,
      "Ġbridge": 7786,
      "DS": 7787,
      "Ġincredible": 7788,
      "Ġsurve": 7789,
      "Ġmand": 7790,
      "oples": 7791,
      "Ġartist": 7792,
      "Ġconcerning": 7793,
      "Ġintegrated": 7794,
      "Ġwarn": 7795,
      "emia": 7796,
      "CP": 7797,
      "Ġdaughter": 7798,
      "orate": 7799,
      "Ġdelivery": 7800,
      "Ġserving": 7801,
      "Ġjump": 7802,
      "ĠCap": 7803,
      "Your": 7804,
      "rency": 7805,
      "Ġspectrum": 7806,
      "reland": 7807,
      "Ġinhib": 7808,
      "unched": 7809,
      "Ġroof": 7810,
      "Ġstreet": 7811,
      "Ġoutcome": 7812,
      "abil": 7813,
      "Ġresid": 7814,
      "mathbf": 7815,
      "oir": 7816,
      "Ġsupposed": 7817,
      "Ġemployment": 7818,
      "Per": 7819,
      "opes": 7820,
      "ih": 7821,
      "Ġsubsequent": 7822,
      "Ġadequate": 7823,
      "Ġswim": 7824,
      "Ġque": 7825,
      "Ġdebt": 7826,
      "View": 7827,
      "ĠValue": 7828,
      "ĠFigure": 7829,
      "Ġchick": 7830,
      "usal": 7831,
      "Ġmild": 7832,
      "ĠDisease": 7833,
      "abling": 7834,
      "ĠOR": 7835,
      "Ġlegs": 7836,
      "Ġwaiting": 7837,
      "craft": 7838,
      "Ġteen": 7839,
      "Ġcommitment": 7840,
      "Ġcup": 7841,
      "ĠBur": 7842,
      "Ġmeal": 7843,
      "hand": 7844,
      "Ġneur": 7845,
      "sor": 7846,
      "ĠEarly": 7847,
      "Ġcenters": 7848,
      "Ġtwenty": 7849,
      "_config": 7850,
      "aph": 7851,
      "Ġalgebra": 7852,
      "assion": 7853,
      "Ġensures": 7854,
      "Ġresulted": 7855,
      "Ġsocieties": 7856,
      "ĠTV": 7857,
      "cription": 7858,
      "Ġputting": 7859,
      "ĠEss": 7860,
      "dev": 7861,
      "Ġparser": 7862,
      "Ġdisturb": 7863,
      "Ġseg": 7864,
      "Ġmarried": 7865,
      "ĠISBN": 7866,
      "III": 7867,
      "ĠSciences": 7868,
      "ĠEffect": 7869,
      "Ġrational": 7870,
      "())Ċ": 7871,
      "holders": 7872,
      "Ġconsideration": 7873,
      "Ġagents": 7874,
      "Ġterritory": 7875,
      "Ġlimitations": 7876,
      "Ġtank": 7877,
      "Ġwidespread": 7878,
      "-qu": 7879,
      "racing": 7880,
      "Ġmood": 7881,
      "?\"": 7882,
      "Ġquery": 7883,
      "ĠUt": 7884,
      "Ġgram": 7885,
      "Ġmodified": 7886,
      "Ġfeeding": 7887,
      "Ġproceed": 7888,
      "arks": 7889,
      "Ġrealize": 7890,
      "hma": 7891,
      "ĠMean": 7892,
      "awn": 7893,
      "asy": 7894,
      "------": 7895,
      "ishment": 7896,
      "tery": 7897,
      "Ġshot": 7898,
      "âĢĺ": 7899,
      "Ġcoe": 7900,
      "-scale": 7901,
      "uits": 7902,
      "ĠSpain": 7903,
      "Ġpartner": 7904,
      "Ġmembr": 7905,
      "Ġautomatically": 7906,
      "orrect": 7907,
      "ocabulary": 7908,
      "Ġneither": 7909,
      "EST": 7910,
      "random": 7911,
      "_url": 7912,
      "Ġagent": 7913,
      "Ġfounded": 7914,
      "Ġplus": 7915,
      "Ġ..": 7916,
      "utch": 7917,
      "Ġincorporating": 7918,
      "Ġmerely": 7919,
      "ett": 7920,
      "heast": 7921,
      "Ġtargets": 7922,
      "arsh": 7923,
      "çļ": 7924,
      "\":Ċ": 7925,
      "Ġregardless": 7926,
      "cos": 7927,
      "this": 7928,
      "author": 7929,
      "Ġcorner": 7930,
      "Reg": 7931,
      "Ġpassage": 7932,
      "eenth": 7933,
      "'],Ċ": 7934,
      "Ġexperimental": 7935,
      "rat": 7936,
      "Ġstatements": 7937,
      "inite": 7938,
      "Ġneighborhood": 7939,
      "Ġdestroyed": 7940,
      "illa": 7941,
      "bing": 7942,
      "Ġpassing": 7943,
      "Ġconstructed": 7944,
      "esis": 7945,
      "Ġdioxide": 7946,
      "Ġsales": 7947,
      "ĠSpe": 7948,
      "ĠMichael": 7949,
      "Ġlogic": 7950,
      "Ġsacr": 7951,
      "uality": 7952,
      "Ġobservation": 7953,
      "ĠAdminist": 7954,
      "Ġscan": 7955,
      "everal": 7956,
      "ĠID": 7957,
      "PL": 7958,
      "Ġrising": 7959,
      "Ġrank": 7960,
      "'],": 7961,
      "Ġhappening": 7962,
      "Ġderiv": 7963,
      "Ġtransformation": 7964,
      "Ġveter": 7965,
      "Ġstrongly": 7966,
      "Ġneck": 7967,
      "ĠRichard": 7968,
      "Ġclothing": 7969,
      "oving": 7970,
      "Ġanalys": 7971,
      "ĠMill": 7972,
      "sm": 7973,
      "fish": 7974,
      "Ġcomputing": 7975,
      "Ġmm": 7976,
      "Ġthreats": 7977,
      ".read": 7978,
      "Ġheavily": 7979,
      "Ġapplying": 7980,
      "ĠCreate": 7981,
      "Med": 7982,
      "ATION": 7983,
      "orses": 7984,
      "Ġbiggest": 7985,
      "çļĦ": 7986,
      "itory": 7987,
      "Ġnodes": 7988,
      "Ġabstract": 7989,
      "agraph": 7990,
      "ĠCommittee": 7991,
      "Ġabsolute": 7992,
      "oices": 7993,
      "root": 7994,
      "ĠIreland": 7995,
      "eers": 7996,
      "Ġtag": 7997,
      "Ġpresents": 7998,
      "Ġsizes": 7999,
      "Ġmechanical": 8000,
      "Ġtheme": 8001,
      "Ġcontrovers": 8002,
      "ults": 8003,
      "ĠItalian": 8004,
      "_count": 8005,
      "Ġships": 8006,
      "Ġalongside": 8007,
      "amps": 8008,
      "Ġfant": 8009,
      "ĠClin": 8010,
      "ĠBank": 8011,
      "Ġcontributions": 8012,
      "Ġpool": 8013,
      "example": 8014,
      "ĠBrown": 8015,
      "adata": 8016,
      "eren": 8017,
      "Ġbrows": 8018,
      "onent": 8019,
      "Ġvelocity": 8020,
      "Ġisinstance": 8021,
      "plant": 8022,
      "forcement": 8023,
      "sey": 8024,
      "ĠPlease": 8025,
      "Finally": 8026,
      "Ġnoticed": 8027,
      "Ġmys": 8028,
      "ĠChange": 8029,
      "Ġsampl": 8030,
      "erator": 8031,
      "Ġmur": 8032,
      "ĠCamp": 8033,
      "ĠMu": 8034,
      "Ġphenomenon": 8035,
      "Ġvertical": 8036,
      "ãĢ": 8037,
      "Ġrice": 8038,
      "erb": 8039,
      "oven": 8040,
      "ĠExamples": 8041,
      "Ġinfluenced": 8042,
      "Ġnerve": 8043,
      "rypt": 8044,
      "Ġobserve": 8045,
      "Sub": 8046,
      "wing": 8047,
      "Ġaffecting": 8048,
      "Ġencounter": 8049,
      "Ġstake": 8050,
      "Ġdemands": 8051,
      "ĠScott": 8052,
      "zy": 8053,
      "Rem": 8054,
      "Ġrecept": 8055,
      "Ġbanks": 8056,
      "Ġinvestigation": 8057,
      "ega": 8058,
      "Ġaims": 8059,
      "Pe": 8060,
      "ĠResp": 8061,
      "ĠBoard": 8062,
      "Ġgreenhouse": 8063,
      "Ġdependent": 8064,
      "ĠMa": 8065,
      "earchers": 8066,
      "items": 8067,
      "ĠIII": 8068,
      "_sh": 8069,
      "Ġsubstantial": 8070,
      "################################": 8071,
      "ĠAge": 8072,
      "ĠInit": 8073,
      "Ġgluc": 8074,
      "ĠWood": 8075,
      "Ġcovers": 8076,
      "Ġran": 8077,
      "ĠWord": 8078,
      "Ġcholesterol": 8079,
      "Ġliv": 8080,
      "Ġfellow": 8081,
      "Ġcrow": 8082,
      "Ġbutton": 8083,
      "start": 8084,
      "war": 8085,
      "theta": 8086,
      "Ġepid": 8087,
      "Ġemerged": 8088,
      "Ġracial": 8089,
      "ĠHy": 8090,
      "Ġrender": 8091,
      "}{\\": 8092,
      "comfort": 8093,
      "Ġuniversal": 8094,
      "ĠEastern": 8095,
      "Ġproportion": 8096,
      "Ġadm": 8097,
      "ocy": 8098,
      "_class": 8099,
      "Ġsmoking": 8100,
      "ĠCP": 8101,
      "Ġmeth": 8102,
      "ĠGuide": 8103,
      "types": 8104,
      "Ġdent": 8105,
      "iratory": 8106,
      "Ġbiod": 8107,
      "query": 8108,
      "apse": 8109,
      "Ġargue": 8110,
      "Ġpup": 8111,
      "irds": 8112,
      "Ġpeak": 8113,
      "Ġod": 8114,
      "Ġrobust": 8115,
      "ĠPo": 8116,
      "onia": 8117,
      "Ġgalax": 8118,
      "ĠTable": 8119,
      "anta": 8120,
      "ĠGeorg": 8121,
      ".|Ċ": 8122,
      "ĠBig": 8123,
      "ĠNov": 8124,
      "Ġnob": 8125,
      "Ġextension": 8126,
      "Ġreceiving": 8127,
      "FT": 8128,
      "ĠNorthern": 8129,
      "Ġ\\\\": 8130,
      "HT": 8131,
      "Ġstructural": 8132,
      "rooms": 8133,
      "mathbb": 8134,
      "Â·Â·": 8135,
      "_k": 8136,
      "Ġequally": 8137,
      "Ġended": 8138,
      "Ġupdated": 8139,
      "blem": 8140,
      "andon": 8141,
      "1993": 8142,
      "Ġoutl": 8143,
      "eras": 8144,
      "ql": 8145,
      "ĠHT": 8146,
      "outs": 8147,
      "Ġidentifying": 8148,
      "Ġfairly": 8149,
      "ommod": 8150,
      "Ġowner": 8151,
      "ĠWill": 8152,
      "ĠWorks": 8153,
      "(-": 8154,
      "ĠOper": 8155,
      "Ġpreserve": 8156,
      "etch": 8157,
      "ĠPop": 8158,
      "Ġmeters": 8159,
      "Trans": 8160,
      "earing": 8161,
      "main": 8162,
      "Ġpreventing": 8163,
      "attr": 8164,
      "Ġversions": 8165,
      "Ġmeals": 8166,
      "Ġremarkable": 8167,
      "ĠCancer": 8168,
      "Under": 8169,
      "Ġstimul": 8170,
      "Ġintent": 8171,
      "Ġinstances": 8172,
      "Ġrelief": 8173,
      "ĠModern": 8174,
      "ĠNum": 8175,
      "IA": 8176,
      "Through": 8177,
      "Ġcolumns": 8178,
      "Ġexpressions": 8179,
      "Ġurl": 8180,
      "Ġfraction": 8181,
      "Ġconstantly": 8182,
      "Ġoblig": 8183,
      "Ġorbit": 8184,
      "plete": 8185,
      "Ġintegral": 8186,
      "Sim": 8187,
      "++": 8188,
      "Ġappreciation": 8189,
      "Ġped": 8190,
      "_state": 8191,
      "Ġrepresenting": 8192,
      "Ġreveal": 8193,
      "Ġunw": 8194,
      "Ġspok": 8195,
      "Ġcontamin": 8196,
      "Ġfrequent": 8197,
      "ollowing": 8198,
      "Ġclassical": 8199,
      "ĠRom": 8200,
      "ĠValley": 8201,
      ",'": 8202,
      "Ġcats": 8203,
      "Ġcontainer": 8204,
      "Ġboy": 8205,
      "ĠApplic": 8206,
      "atern": 8207,
      "ĠClimate": 8208,
      "Ġstroke": 8209,
      "osion": 8210,
      "ĠGard": 8211,
      "Ġgradually": 8212,
      "Ġdefe": 8213,
      "Ġassociation": 8214,
      "ami": 8215,
      "etics": 8216,
      "Ġessentially": 8217,
      "fulness": 8218,
      "\\n": 8219,
      "Ġassigned": 8220,
      "Ġdepart": 8221,
      "Ġattempts": 8222,
      "Ġnavigate": 8223,
      "ĠRoyal": 8224,
      "Ġfurn": 8225,
      "},Ċ": 8226,
      "Ġtap": 8227,
      "ĠSil": 8228,
      "Ġmusical": 8229,
      "teen": 8230,
      "gers": 8231,
      "PE": 8232,
      ",\\": 8233,
      "Ġtables": 8234,
      "Ġflour": 8235,
      "Ġunexpected": 8236,
      "Ġhonor": 8237,
      "Ġengineers": 8238,
      "dir": 8239,
      "ĠInteg": 8240,
      "1992": 8241,
      "ĠEc": 8242,
      "Ġusual": 8243,
      "ĠStart": 8244,
      "Ġpra": 8245,
      "Ġinherent": 8246,
      "ĠCarolina": 8247,
      "Ġholid": 8248,
      "ographical": 8249,
      "_{\\": 8250,
      "inator": 8251,
      "Ġhumanity": 8252,
      "Ġindicated": 8253,
      "ĠAcademy": 8254,
      "ĠScot": 8255,
      "Ġcompound": 8256,
      "Ġsched": 8257,
      "Ġintegr": 8258,
      "Ġsomewhat": 8259,
      "Ġinher": 8260,
      "ĠAsian": 8261,
      "Ġmice": 8262,
      "ECT": 8263,
      "Ġmir": 8264,
      "Ġproved": 8265,
      "Ġmoisture": 8266,
      "Ret": 8267,
      "ribe": 8268,
      "antly": 8269,
      "Ġempathy": 8270,
      "real": 8271,
      "Ġprime": 8272,
      "lishing": 8273,
      "Ġrecommendations": 8274,
      "Ġevolved": 8275,
      "ĠÂ·": 8276,
      "pecific": 8277,
      "ui": 8278,
      "Ġdance": 8279,
      "Ġminds": 8280,
      "rey": 8281,
      "ĠDev": 8282,
      "Ġprominent": 8283,
      "Ġdepartment": 8284,
      ")=": 8285,
      "Ġescape": 8286,
      "uels": 8287,
      "Ġeffectiveness": 8288,
      "ĠPenn": 8289,
      "Ġfacilitate": 8290,
      "ĠDu": 8291,
      "Part": 8292,
      "Ġbigger": 8293,
      "health": 8294,
      "ĠSpecial": 8295,
      "Ġphoto": 8296,
      "}^": 8297,
      "Ġdanger": 8298,
      "âĢľThe": 8299,
      "Ġtissues": 8300,
      "aining": 8301,
      "ĠTimes": 8302,
      "orted": 8303,
      "ersion": 8304,
      "Ġblow": 8305,
      "Ġfocusing": 8306,
      "Ġcomposed": 8307,
      "Ġdifficulties": 8308,
      "Ġrepair": 8309,
      "emp": 8310,
      "Ġexcessive": 8311,
      "/j": 8312,
      "itual": 8313,
      "estions": 8314,
      "Ġprofound": 8315,
      "ĠFort": 8316,
      "ushed": 8317,
      "Ġnewly": 8318,
      "izers": 8319,
      "Ġsubt": 8320,
      "aren": 8321,
      "aired": 8322,
      "ĠLog": 8323,
      "Ġadvert": 8324,
      "ĠBrazil": 8325,
      "'),": 8326,
      "Ġeastern": 8327,
      "ĠVictor": 8328,
      "Ġrivers": 8329,
      "eric": 8330,
      "Ġmask": 8331,
      "Ġcentre": 8332,
      "Ġrh": 8333,
      "Ġscores": 8334,
      "Ġdirectory": 8335,
      "ulumi": 8336,
      "RC": 8337,
      "Ġfinished": 8338,
      "Ġplenty": 8339,
      "Ġenthus": 8340,
      "Ġboundary": 8341,
      "ĠProcess": 8342,
      "Ġprotecting": 8343,
      "Ġlegislation": 8344,
      "Ġentered": 8345,
      "heric": 8346,
      "250": 8347,
      "ĠFamily": 8348,
      "Ġforming": 8349,
      "ĠChicago": 8350,
      "Ġstead": 8351,
      "Ġtreating": 8352,
      "Ġasp": 8353,
      "Ġhistoric": 8354,
      "ĠEnc": 8355,
      "ĠIns": 8356,
      "Ġadds": 8357,
      "Ġ~": 8358,
      "Ġbringing": 8359,
      "Ġobjectives": 8360,
      "irus": 8361,
      "elesc": 8362,
      "Ġpharm": 8363,
      "Ġbonds": 8364,
      "LL": 8365,
      "ĠAgricult": 8366,
      "ĠImp": 8367,
      "acher": 8368,
      "Ġcombat": 8369,
      "Ġhence": 8370,
      "Ġatoms": 8371,
      "ĠMS": 8372,
      "olds": 8373,
      ".'": 8374,
      "cribed": 8375,
      "ipher": 8376,
      "Ġinitiatives": 8377,
      "Ã¢": 8378,
      "Ġpairs": 8379,
      "Ġmaxim": 8380,
      "Ġouter": 8381,
      "Conclusion": 8382,
      "theless": 8383,
      "ï¼Į": 8384,
      "Def": 8385,
      "Ġparticle": 8386,
      "Ġprincipal": 8387,
      "[:,": 8388,
      "ĠFace": 8389,
      "Ġperforming": 8390,
      "Ġlists": 8391,
      "Ġvariation": 8392,
      ".N": 8393,
      "Ġcustomer": 8394,
      "Ġenemy": 8395,
      "ureau": 8396,
      "ĠPrinc": 8397,
      "ceptions": 8398,
      "Ġissued": 8399,
      "Ġwouldn": 8400,
      "Ġvideos": 8401,
      "Ġille": 8402,
      "Ġcycl": 8403,
      "rained": 8404,
      "Ġmixture": 8405,
      "ĠLine": 8406,
      "Ġpossibilities": 8407,
      "Ġfarming": 8408,
      "ĠLiter": 8409,
      "Ġdamaged": 8410,
      "Ġdescript": 8411,
      "Ġfer": 8412,
      "aws": 8413,
      "Ġsocietal": 8414,
      "rical": 8415,
      "CD": 8416,
      "OM": 8417,
      "Ġhem": 8418,
      "Ġintensity": 8419,
      "Ġmitig": 8420,
      "ĠYoung": 8421,
      "Ġdispl": 8422,
      "iki": 8423,
      "Ġvolcan": 8424,
      "Ġcav": 8425,
      "ĠThough": 8426,
      "emplate": 8427,
      "opl": 8428,
      "Ġlaunched": 8429,
      "erring": 8430,
      "oded": 8431,
      "Ġminerals": 8432,
      "Ġdiagnosed": 8433,
      "Ġcul": 8434,
      "?âĢĿ": 8435,
      "ĠServices": 8436,
      "Ġorgans": 8437,
      "ĠParty": 8438,
      "Ġdriver": 8439,
      "connect": 8440,
      "fill": 8441,
      "edu": 8442,
      "ostic": 8443,
      "ĠAM": 8444,
      "Ġmyst": 8445,
      "Ġordinary": 8446,
      "Ġconvey": 8447,
      "Ġpublication": 8448,
      "Ġtempl": 8449,
      "ograp": 8450,
      "Ġwel": 8451,
      "osh": 8452,
      "Ġextend": 8453,
      "Ġobesity": 8454,
      "Ġkne": 8455,
      "Ġcarrying": 8456,
      "','": 8457,
      "Ġelection": 8458,
      "Ġequality": 8459,
      "Ġaward": 8460,
      "Ġovercome": 8461,
      "Ġathlet": 8462,
      "Ġwhenever": 8463,
      "Man": 8464,
      "Ġeducators": 8465,
      "Ġpolar": 8466,
      "Ġsmoke": 8467,
      "Ġinterventions": 8468,
      "Ġsharp": 8469,
      "ildren": 8470,
      "Ġentertain": 8471,
      "Today": 8472,
      "Ġdecay": 8473,
      "Ġvariations": 8474,
      "ptic": 8475,
      "Ġdifferently": 8476,
      "ĠIndigenous": 8477,
      "ĠSat": 8478,
      "brid": 8479,
      "eness": 8480,
      "ritis": 8481,
      "ĠTop": 8482,
      "Ġclients": 8483,
      "Ġhandling": 8484,
      "Ġdisrupt": 8485,
      "Ġquantity": 8486,
      "Ġsimultaneously": 8487,
      "esson": 8488,
      "oder": 8489,
      "plex": 8490,
      "Ġtub": 8491,
      "ĠYear": 8492,
      "Ġadventure": 8493,
      "Ġmyself": 8494,
      "Ġcapabilities": 8495,
      "1991": 8496,
      "Ġcoastal": 8497,
      "Chapter": 8498,
      "Ġeditor": 8499,
      "Ġconfiguration": 8500,
      "Ġunusual": 8501,
      "Ġmos": 8502,
      "Ġpanel": 8503,
      "Ġpropag": 8504,
      "fe": 8505,
      "Ġturb": 8506,
      "amine": 8507,
      "Ġbiology": 8508,
      "ĠSuper": 8509,
      "âĢĶthe": 8510,
      "Ġproviders": 8511,
      "Ġboys": 8512,
      "Ġreverse": 8513,
      "Ġcolonial": 8514,
      "Ġstores": 8515,
      "1950": 8516,
      "Ġfeels": 8517,
      "EF": 8518,
      "Ġ(Ċ": 8519,
      "ĠÏ": 8520,
      "Ġ}Ċ": 8521,
      "hyd": 8522,
      "Ġbranches": 8523,
      "Ġgar": 8524,
      "Ġaer": 8525,
      "Ġtranslation": 8526,
      "Ġdestruction": 8527,
      "Ġcaptured": 8528,
      "Ġdesert": 8529,
      "ĠBab": 8530,
      "Ġmic": 8531,
      "Ġemotion": 8532,
      "ĠMartin": 8533,
      "Ġlie": 8534,
      "Ġmarks": 8535,
      "ĠHall": 8536,
      "Ġsustainability": 8537,
      "_argument": 8538,
      "Ġdimension": 8539,
      "Ġdiameter": 8540,
      "ĠLi": 8541,
      "Ġordered": 8542,
      "ani": 8543,
      "var": 8544,
      "Ġbuff": 8545,
      "Ġblind": 8546,
      "Ġpaint": 8547,
      "ĠLast": 8548,
      "ĠCommunity": 8549,
      "Ġsurprising": 8550,
      "Ġvisitors": 8551,
      "Ġconflicts": 8552,
      "Ġencouraged": 8553,
      "Ġchannels": 8554,
      "ĠIndians": 8555,
      "Ġlegisl": 8556,
      "_M": 8557,
      "uity": 8558,
      "Ġprofile": 8559,
      "lik": 8560,
      "Add": 8561,
      "Ġlights": 8562,
      "ĠHoly": 8563,
      "map": 8564,
      "Ġabandon": 8565,
      "Ġpuzz": 8566,
      "quit": 8567,
      "ideo": 8568,
      "esides": 8569,
      "method": 8570,
      "Ġbath": 8571,
      "Ġundert": 8572,
      "Out": 8573,
      "ĠReal": 8574,
      "ependent": 8575,
      "asses": 8576,
      "ruption": 8577,
      "lower": 8578,
      "iral": 8579,
      "Ġflows": 8580,
      "Ġassets": 8581,
      "azine": 8582,
      "otton": 8583,
      "ĠOrig": 8584,
      "ESS": 8585,
      "Am": 8586,
      "oids": 8587,
      "Ġcash": 8588,
      "Ġaccommod": 8589,
      "Ġwindows": 8590,
      "Ġburning": 8591,
      "Ġmining": 8592,
      "Ġvictims": 8593,
      "Ġnervous": 8594,
      "Ġdecor": 8595,
      "Ġtube": 8596,
      "Ġrenewable": 8597,
      "Ġoverwhel": 8598,
      "Ġfaces": 8599,
      "110": 8600,
      "_length": 8601,
      "itals": 8602,
      "Ġdollars": 8603,
      "ĠTheory": 8604,
      "bles": 8605,
      "range": 8606,
      "}(": 8607,
      "Ġpoison": 8608,
      "Ġrocks": 8609,
      "Ġbias": 8610,
      "Ġintense": 8611,
      "Ġpassword": 8612,
      "ĠContin": 8613,
      "being": 8614,
      "Ġdeclared": 8615,
      "ĠNever": 8616,
      "Ġpermission": 8617,
      "Ġcomprom": 8618,
      "Ġbarriers": 8619,
      "Ġrequiring": 8620,
      "Ġweapons": 8621,
      "-dimensional": 8622,
      "cies": 8623,
      "Ġmeasuring": 8624,
      "ymph": 8625,
      "-W": 8626,
      "ĠIndust": 8627,
      "Bob": 8628,
      "ĠNetwork": 8629,
      "ĠSecurity": 8630,
      "Ġtick": 8631,
      "Ġsatellite": 8632,
      "Ġmortality": 8633,
      "Ġoutbre": 8634,
      "ĠTitle": 8635,
      "ogs": 8636,
      "ading": 8637,
      "Ġ\\Ċ": 8638,
      "peut": 8639,
      "mal": 8640,
      "Ġvan": 8641,
      "Ġminute": 8642,
      "Ġedges": 8643,
      "born": 8644,
      "Ġmicrosc": 8645,
      "ĠBack": 8646,
      "ba": 8647,
      "Ġresident": 8648,
      "Ġrobot": 8649,
      "Ġreson": 8650,
      "Ġdisput": 8651,
      "icular": 8652,
      "iah": 8653,
      "Ġcontributed": 8654,
      "Ġhusband": 8655,
      "Ġexperiencing": 8656,
      "Ġschedule": 8657,
      "Ġviruses": 8658,
      "ĠIrish": 8659,
      "acent": 8660,
      "Ġearthqu": 8661,
      "Ġminimize": 8662,
      "Ġscope": 8663,
      "ĠĠĠĠĠĠĠĠĠĠĠĠ": 8664,
      "Ġmovie": 8665,
      "%)": 8666,
      "exts": 8667,
      "opath": 8668,
      "kl": 8669,
      "Ġfever": 8670,
      "Ġprecise": 8671,
      "Ġ{\\": 8672,
      "Ġmock": 8673,
      "Ġwithd": 8674,
      "Ġhun": 8675,
      "uid": 8676,
      "Ġinn": 8677,
      "Lear": 8678,
      "Ġsport": 8679,
      "Ġcleaning": 8680,
      "Ġradical": 8681,
      "ĠHand": 8682,
      "ĠJac": 8683,
      "Ġcurious": 8684,
      "Ġneural": 8685,
      "Ġdigest": 8686,
      "ĠEngineering": 8687,
      "Ġproven": 8688,
      "Ġcarb": 8689,
      "Ġcriminal": 8690,
      "Table": 8691,
      "inition": 8692,
      "Ne": 8693,
      "Ġrhyth": 8694,
      ".load": 8695,
      "Ġarchae": 8696,
      "Ġreaching": 8697,
      "Ġconj": 8698,
      "medi": 8699,
      "Ġcompens": 8700,
      "_L": 8701,
      "Ġreput": 8702,
      "rowing": 8703,
      "Ġregulation": 8704,
      "Ġguard": 8705,
      "Ġmaintained": 8706,
      ");Ċ": 8707,
      "Ġdates": 8708,
      "Inst": 8709,
      "utrition": 8710,
      "ĠViet": 8711,
      "Ġsigned": 8712,
      "Ġheating": 8713,
      "Ġapproved": 8714,
      ".gov": 8715,
      "ĠTry": 8716,
      "Ġsymmet": 8717,
      "ili": 8718,
      "Ġidentification": 8719,
      "ĠPot": 8720,
      "Ġcaught": 8721,
      "bug": 8722,
      "Ġjoy": 8723,
      "Ġsensitivity": 8724,
      "ĠMel": 8725,
      "yroid": 8726,
      "Ġtowns": 8727,
      "Ġfalls": 8728,
      "cdot": 8729,
      "-ex": 8730,
      "Ġfourth": 8731,
      "archy": 8732,
      "ĠPoint": 8733,
      "Ġdefense": 8734,
      "ounce": 8735,
      "Ġpartial": 8736,
      "Ġcuriosity": 8737,
      "lights": 8738,
      "sis": 8739,
      "Ġdys": 8740,
      "Ġ?": 8741,
      "ressing": 8742,
      "Ġdefect": 8743,
      "Ġ...Ċ": 8744,
      "ĠFact": 8745,
      "ude": 8746,
      "Ġalike": 8747,
      "Ġconsiderable": 8748,
      "Ġ[\"": 8749,
      "(i": 8750,
      "Aut": 8751,
      "Ġholes": 8752,
      "Ġfest": 8753,
      "Ġdialogue": 8754,
      "Ġtons": 8755,
      "Ġtheoretical": 8756,
      "Ġaudio": 8757,
      "Ġdriven": 8758,
      "Ġfemales": 8759,
      "Ã¤": 8760,
      "Ġfinds": 8761,
      "yal": 8762,
      "Ġgent": 8763,
      "code": 8764,
      "Ġattach": 8765,
      "-known": 8766,
      "Even": 8767,
      "otype": 8768,
      "ca": 8769,
      "Ġsegment": 8770,
      "Ġbabies": 8771,
      "ivate": 8772,
      "Ġprovider": 8773,
      "ĠResources": 8774,
      "Ġcoding": 8775,
      "-\\": 8776,
      "acles": 8777,
      "Ġcalling": 8778,
      "Ġflav": 8779,
      "_C": 8780,
      "ĠAtlantic": 8781,
      "Ġinsulin": 8782,
      "Ġprocessed": 8783,
      "Ġpeoples": 8784,
      "Ġimprovements": 8785,
      "Ġcust": 8786,
      "Ġabsence": 8787,
      "rection": 8788,
      "oric": 8789,
      "arios": 8790,
      "Ġimaging": 8791,
      "ĠKingdom": 8792,
      "Ġtrace": 8793,
      "Ð¸": 8794,
      "Ġscenario": 8795,
      "eting": 8796,
      "Ġchlor": 8797,
      "EX": 8798,
      "ayers": 8799,
      "ĠPlant": 8800,
      "Form": 8801,
      "NS": 8802,
      "ieval": 8803,
      "athered": 8804,
      "/t": 8805,
      "ĠHistorical": 8806,
      "ugg": 8807,
      "Ġsessions": 8808,
      "ĠSchol": 8809,
      "Ġsla": 8810,
      "Ġwarning": 8811,
      "ĠThree": 8812,
      "Ġhardware": 8813,
      "Ġislands": 8814,
      "ĠEp": 8815,
      "Ġannounced": 8816,
      "Ġneu": 8817,
      "Ġprofit": 8818,
      "ston": 8819,
      "Ġbrush": 8820,
      "Ġnic": 8821,
      "ady": 8822,
      "Ġglucose": 8823,
      "Ġliteracy": 8824,
      "Ġenabling": 8825,
      "odule": 8826,
      "Ġgravity": 8827,
      "Ġwatching": 8828,
      "ĠDou": 8829,
      "Ġroughly": 8830,
      "color": 8831,
      "Ġcontributing": 8832,
      "inson": 8833,
      "Ġnice": 8834,
      "UM": 8835,
      "]:Ċ": 8836,
      "ivered": 8837,
      "ĠFund": 8838,
      "Ġritual": 8839,
      "Ġprinted": 8840,
      "Ġthermal": 8841,
      "Input": 8842,
      "Model": 8843,
      "Ġencourages": 8844,
      "airy": 8845,
      "Ġmales": 8846,
      "Ġdevelopments": 8847,
      "amination": 8848,
      "Ġlosses": 8849,
      "ĠFig": 8850,
      "Ġepis": 8851,
      "Ġsitting": 8852,
      "olesc": 8853,
      "Ġremoval": 8854,
      "HD": 8855,
      "Ġcounty": 8856,
      "Ġminimal": 8857,
      "Ġwebsites": 8858,
      "cyclop": 8859,
      "-a": 8860,
      "unning": 8861,
      "Ġunp": 8862,
      "ĠThanks": 8863,
      "Ġevil": 8864,
      "Ġshaped": 8865,
      "Ġtack": 8866,
      "otion": 8867,
      "ĠEU": 8868,
      "Ġtelevision": 8869,
      "ĠUnfortunately": 8870,
      "ensed": 8871,
      "Ġlaid": 8872,
      "IDS": 8873,
      "ĠLim": 8874,
      "ĠJohnson": 8875,
      "ector": 8876,
      "reek": 8877,
      "Ġexhibit": 8878,
      "igan": 8879,
      "Ġfacility": 8880,
      "Despite": 8881,
      "(g": 8882,
      "Ġwound": 8883,
      "Ġartistic": 8884,
      "Ġclassic": 8885,
      "iber": 8886,
      "Cons": 8887,
      "Ġsou": 8888,
      "Ġdetected": 8889,
      "Ġplanned": 8890,
      "Ġhorses": 8891,
      "Ġslavery": 8892,
      "ĠWal": 8893,
      "md": 8894,
      "})": 8895,
      "Ġrecover": 8896,
      "Ġofficers": 8897,
      "iological": 8898,
      "ĠGrand": 8899,
      "Ġspecialized": 8900,
      "rium": 8901,
      "Ġparas": 8902,
      "-con": 8903,
      "Ġroads": 8904,
      "Ġprohib": 8905,
      "Ġacknowled": 8906,
      "isco": 8907,
      "Ġtrauma": 8908,
      "Ġshed": 8909,
      "Ġinteractive": 8910,
      "Ġavailability": 8911,
      "agnetic": 8912,
      "you": 8913,
      "Ġ\"\"\"ĊĊ": 8914,
      "_code": 8915,
      "alities": 8916,
      "ugh": 8917,
      "ĠVer": 8918,
      "charge": 8919,
      "Every": 8920,
      "Ġsoul": 8921,
      "Ġarise": 8922,
      "oga": 8923,
      "Ġspatial": 8924,
      "Ġinfluences": 8925,
      "Ġranging": 8926,
      "Ġemphasis": 8927,
      "lected": 8928,
      "Because": 8929,
      "Ġprinting": 8930,
      "Example": 8931,
      "Pre": 8932,
      "ĠĠĠĠĠĠĠĠĠĠĠĠĠĠĠĠĠĠĠĠĠĠĠĠĠĠĠĠĠĠĠ": 8933,
      "Ġfault": 8934,
      "Ġsunlight": 8935,
      "ĠSection": 8936,
      "ĠBul": 8937,
      "Ġanywhere": 8938,
      "Ġvarieties": 8939,
      "Ġperception": 8940,
      "ĠZeal": 8941,
      "ĠLow": 8942,
      "Ġclaimed": 8943,
      "ĠForest": 8944,
      "ĠChristianity": 8945,
      "riz": 8946,
      "ynomial": 8947,
      "urric": 8948,
      "Ġexpertise": 8949,
      "Ġcharacteristic": 8950,
      "amins": 8951,
      "Ġweakness": 8952,
      "Ġjudge": 8953,
      "ĠLearn": 8954,
      "Ġye": 8955,
      "odels": 8956,
      "Ġscheme": 8957,
      "Ġsad": 8958,
      "Ġexclud": 8959,
      "Ġarrest": 8960,
      "ĠTom": 8961,
      "Ġnose": 8962,
      "Ġwine": 8963,
      "Ġmyster": 8964,
      "Ġwheel": 8965,
      "sg": 8966,
      "Ġdisaster": 8967,
      "Ġpractition": 8968,
      "Ġdraft": 8969,
      "ĠOnline": 8970,
      "ĠChristians": 8971,
      "Ġsilver": 8972,
      "haust": 8973,
      "ĠSup": 8974,
      "including": 8975,
      "Ġgirl": 8976,
      "Ġheads": 8977,
      "Ġcluster": 8978,
      "Ġedition": 8979,
      "elfare": 8980,
      "Ġwonderful": 8981,
      "Ġpounds": 8982,
      "Ġnotion": 8983,
      "Ġrarely": 8984,
      "iture": 8985,
      "Ġsaved": 8986,
      "peror": 8987,
      "Ġfriendly": 8988,
      "_per": 8989,
      "Ġkeeps": 8990,
      "rin": 8991,
      "Ġefficiently": 8992,
      "ĠSecret": 8993,
      "ĠOxford": 8994,
      "ĠCross": 8995,
      "Ġopposed": 8996,
      "emb": 8997,
      "rade": 8998,
      "roups": 8999,
      "Ġcoverage": 9000,
      "ĠAuthor": 9001,
      "Ġcounsel": 9002,
      "9999": 9003,
      "Ġexceed": 9004,
      "ATE": 9005,
      "âĢĻ.": 9006,
      "mu": 9007,
      "Ġkidney": 9008,
      "Ġmoments": 9009,
      "Ġinfo": 9010,
      "Ġproductivity": 9011,
      "ĠDen": 9012,
      "bur": 9013,
      "erge": 9014,
      "Ġpin": 9015,
      ".se": 9016,
      "Ġinvestigate": 9017,
      "azon": 9018,
      "SP": 9019,
      "sequently": 9020,
      "oop": 9021,
      "Ġconfirmed": 9022,
      "Ġmetabol": 9023,
      "-cont": 9024,
      "Ġpoetry": 9025,
      "Ġstrain": 9026,
      "Ġvocabulary": 9027,
      "Ġqualities": 9028,
      "{{": 9029,
      "Ġnu": 9030,
      "Ġkeys": 9031,
      "Ġdiscussing": 9032,
      "Ġreferences": 9033,
      "ĠLight": 9034,
      "Ġdispos": 9035,
      "Ġeliminate": 9036,
      "utely": 9037,
      "rous": 9038,
      "xy": 9039,
      "_num": 9040,
      "ĠImport": 9041,
      "acco": 9042,
      "Ġduration": 9043,
      "ername": 9044,
      "Ġdecreased": 9045,
      "Ġdefend": 9046,
      "Sp": 9047,
      "ĠIss": 9048,
      "_log": 9049,
      "Ġnitrogen": 9050,
      "Ġcontribution": 9051,
      "ĠAR": 9052,
      "ĠHill": 9053,
      "Hist": 9054,
      "Ġnotable": 9055,
      "Ġparad": 9056,
      "OG": 9057,
      "Ġtempor": 9058,
      "Ġcoc": 9059,
      "linear": 9060,
      "ĠNOT": 9061,
      "capes": 9062,
      "Ġcalories": 9063,
      "Ġscreening": 9064,
      "Ġgiant": 9065,
      "Ġsensors": 9066,
      "Ġpaths": 9067,
      "ovascular": 9068,
      "Ġecosystems": 9069,
      "Ġcub": 9070,
      "width": 9071,
      "ĠNaz": 9072,
      "Ġbag": 9073,
      "etary": 9074,
      "Ġinputs": 9075,
      "uum": 9076,
      "ĠZealand": 9077,
      "Ġseparated": 9078,
      "Ġclust": 9079,
      "Ġmultip": 9080,
      "Ġcovering": 9081,
      "beta": 9082,
      "Ġdose": 9083,
      "Ġextraord": 9084,
      "Ġsuperior": 9085,
      "Introduction": 9086,
      "Ġsensor": 9087,
      "Ġvarying": 9088,
      "Ġincorporate": 9089,
      "pload": 9090,
      "Ġisolated": 9091,
      "Ġdirections": 9092,
      "Ġstations": 9093,
      "iler": 9094,
      "Ġalive": 9095,
      "Are": 9096,
      "filename": 9097,
      "oln": 9098,
      "ĠBusiness": 9099,
      "Ġpreced": 9100,
      "ustain": 9101,
      "Ġmigration": 9102,
      "ener": 9103,
      "Ġposit": 9104,
      "Ġelectrons": 9105,
      "ĠCode": 9106,
      "roat": 9107,
      "Ġanalog": 9108,
      "ĠWhether": 9109,
      "ĠDom": 9110,
      "iments": 9111,
      "Ġbiom": 9112,
      "Ġdrain": 9113,
      "Ġnarrative": 9114,
      "Ġattributes": 9115,
      "iana": 9116,
      "Ġinhabit": 9117,
      "RL": 9118,
      "ali": 9119,
      "Ġscientist": 9120,
      "ĠObs": 9121,
      "Ġdrag": 9122,
      "Ġchoosing": 9123,
      "Ġpromise": 9124,
      "Ġhier": 9125,
      "Inf": 9126,
      ".info": 9127,
      "Ġconversations": 9128,
      "Ġabnormal": 9129,
      "Ġceremon": 9130,
      "Ġlock": 9131,
      "ĠStrateg": 9132,
      "mega": 9133,
      "Ġstrategic": 9134,
      "Ġrestric": 9135,
      "rance": 9136,
      "Ġdisabilities": 9137,
      "onds": 9138,
      "ailing": 9139,
      "Ġclock": 9140,
      "ĠLin": 9141,
      "Art": 9142,
      "sin": 9143,
      "heimer": 9144,
      "Ġbinary": 9145,
      "phi": 9146,
      "Ġcommission": 9147,
      "Ġlibraries": 9148,
      "Ġpsychology": 9149,
      "Ġquad": 9150,
      "ĠAgency": 9151,
      "(len": 9152,
      "mann": 9153,
      "Ġbreeding": 9154,
      "ĠCOVID": 9155,
      "Ġirrit": 9156,
      "Ġaccompan": 9157,
      "ĠCle": 9158,
      "irms": 9159,
      "Ġtension": 9160,
      "Ġoperator": 9161,
      "Ġdelivered": 9162,
      "ownload": 9163,
      "ĠPolit": 9164,
      "Ġmarketing": 9165,
      "Object": 9166,
      "-res": 9167,
      "Ġrom": 9168,
      "Ġcyber": 9169,
      "Ġdb": 9170,
      "Ġimplementing": 9171,
      "-being": 9172,
      "ĠFour": 9173,
      "Ġrequests": 9174,
      "Ġdil": 9175,
      "iox": 9176,
      "Ġdominant": 9177,
      "Ġsubstit": 9178,
      "Ġinterval": 9179,
      "Ġchest": 9180,
      "cient": 9181,
      "Ġtact": 9182,
      "Ġassumed": 9183,
      "Ġworship": 9184,
      "Ġpoem": 9185,
      "Ġchemistry": 9186,
      "Ġparagraph": 9187,
      "(np": 9188,
      "Ġthreshold": 9189,
      "Ġdetermining": 9190,
      "ĠCD": 9191,
      "Ġhaven": 9192,
      "Ġtip": 9193,
      "Ġdirected": 9194,
      "Ġvisited": 9195,
      "Ġphosph": 9196,
      "Ġmarginal": 9197,
      "Ġpd": 9198,
      "Ġrespiratory": 9199,
      "ĠMen": 9200,
      "Ġhypothesis": 9201,
      "Ġcollections": 9202,
      "[-": 9203,
      "oston": 9204,
      "connected": 9205,
      "Ġtargeted": 9206,
      "Ġreflection": 9207,
      "Ġfo": 9208,
      "Ġpersonality": 9209,
      "otherapy": 9210,
      "rize": 9211,
      "ĠBill": 9212,
      "TER": 9213,
      "/f": 9214,
      "ols": 9215,
      "Ġrac": 9216,
      "({": 9217,
      "Ġfinger": 9218,
      "She": 9219,
      "roductive": 9220,
      "des": 9221,
      "points": 9222,
      "1989": 9223,
      "Ġconqu": 9224,
      "Ġquiet": 9225,
      "Ġfung": 9226,
      "Ġcrew": 9227,
      "Ġdictionary": 9228,
      "Ġlaser": 9229,
      "Ġexpanded": 9230,
      "Ġexamined": 9231,
      "Ġrealm": 9232,
      "Ġunion": 9233,
      "Ġmineral": 9234,
      "atrix": 9235,
      "âĢĿ.Ċ": 9236,
      "Ġcham": 9237,
      "Ġplain": 9238,
      "Ġneutral": 9239,
      "ĠSwed": 9240,
      "Ġsuscept": 9241,
      "Ġion": 9242,
      "Ġinfant": 9243,
      "Ġclub": 9244,
      "Ġstatistical": 9245,
      "Ġactively": 9246,
      "Ġlake": 9247,
      "Ġmultipl": 9248,
      "ĠAngel": 9249,
      "Ġbreaking": 9250,
      "itarian": 9251,
      "ĠMaybe": 9252,
      "FF": 9253,
      "Ġsequences": 9254,
      "-N": 9255,
      "Ġcopyright": 9256,
      "reprene": 9257,
      "alog": 9258,
      "-called": 9259,
      "Ġpregnant": 9260,
      "ĠText": 9261,
      "ĠOrganization": 9262,
      "Ġtaxes": 9263,
      "Ġcontents": 9264,
[...]
